
// This is a TensorFlow Lite model file that has been converted into a C data
// array using the tensorflow.lite.util.convert_bytes_to_c_source() function.
// This form is useful for compiling into a binary for devices that don't have a
// file system.

#include "FFNN_model.h"
// We need to keep the data array aligned on some architectures.
#ifdef __has_attribute
#define HAVE_ATTRIBUTE(x) __has_attribute(x)
#else
#define HAVE_ATTRIBUTE(x) 0
#endif
#if HAVE_ATTRIBUTE(aligned) || (defined(__GNUC__) && !defined(__clang__))
#define DATA_ALIGN_ATTRIBUTE __attribute__((aligned(4)))
#else
#define DATA_ALIGN_ATTRIBUTE
#endif


const unsigned char FFNN_model[] DATA_ALIGN_ATTRIBUTE = {
    0x20, 0x00, 0x00, 0x00, 0x54, 0x46, 0x4c, 0x33, 0x00, 0x00, 0x00, 0x00, 0x14,
    0x00, 0x20, 0x00, 0x1c, 0x00, 0x18, 0x00, 0x14, 0x00, 0x10, 0x00, 0x0c, 0x00,
    0x00, 0x00, 0x08, 0x00, 0x04, 0x00, 0x14, 0x00, 0x00, 0x00, 0x1c, 0x00, 0x00,
    0x00, 0x88, 0x00, 0x00, 0x00, 0xe0, 0x00, 0x00, 0x00, 0x28, 0x2b, 0x00, 0x00,
    0x38, 0x2b, 0x00, 0x00, 0x38, 0x35, 0x00, 0x00, 0x03, 0x00, 0x00, 0x00, 0x01,
    0x00, 0x00, 0x00, 0x04, 0x00, 0x00, 0x00, 0x82, 0xd4, 0xff, 0xff, 0x0c, 0x00,
    0x00, 0x00, 0x1c, 0x00, 0x00, 0x00, 0x40, 0x00, 0x00, 0x00, 0x0f, 0x00, 0x00,
    0x00, 0x73, 0x65, 0x72, 0x76, 0x69, 0x6e, 0x67, 0x5f, 0x64, 0x65, 0x66, 0x61,
    0x75, 0x6c, 0x74, 0x00, 0x01, 0x00, 0x00, 0x00, 0x04, 0x00, 0x00, 0x00, 0x94,
    0xff, 0xff, 0xff, 0x0c, 0x00, 0x00, 0x00, 0x04, 0x00, 0x00, 0x00, 0x0d, 0x00,
    0x00, 0x00, 0x71, 0x75, 0x61, 0x6e, 0x74, 0x5f, 0x64, 0x65, 0x6e, 0x73, 0x65,
    0x5f, 0x32, 0x00, 0x00, 0x00, 0x01, 0x00, 0x00, 0x00, 0x04, 0x00, 0x00, 0x00,
    0x92, 0xd4, 0xff, 0xff, 0x04, 0x00, 0x00, 0x00, 0x07, 0x00, 0x00, 0x00, 0x69,
    0x6e, 0x70, 0x75, 0x74, 0x5f, 0x31, 0x00, 0x02, 0x00, 0x00, 0x00, 0x34, 0x00,
    0x00, 0x00, 0x04, 0x00, 0x00, 0x00, 0xdc, 0xff, 0xff, 0xff, 0x0f, 0x00, 0x00,
    0x00, 0x04, 0x00, 0x00, 0x00, 0x13, 0x00, 0x00, 0x00, 0x43, 0x4f, 0x4e, 0x56,
    0x45, 0x52, 0x53, 0x49, 0x4f, 0x4e, 0x5f, 0x4d, 0x45, 0x54, 0x41, 0x44, 0x41,
    0x54, 0x41, 0x00, 0x08, 0x00, 0x0c, 0x00, 0x08, 0x00, 0x04, 0x00, 0x08, 0x00,
    0x00, 0x00, 0x0e, 0x00, 0x00, 0x00, 0x04, 0x00, 0x00, 0x00, 0x13, 0x00, 0x00,
    0x00, 0x6d, 0x69, 0x6e, 0x5f, 0x72, 0x75, 0x6e, 0x74, 0x69, 0x6d, 0x65, 0x5f,
    0x76, 0x65, 0x72, 0x73, 0x69, 0x6f, 0x6e, 0x00, 0x10, 0x00, 0x00, 0x00, 0x44,
    0x2a, 0x00, 0x00, 0x3c, 0x2a, 0x00, 0x00, 0x2c, 0x29, 0x00, 0x00, 0xfc, 0x28,
    0x00, 0x00, 0xec, 0x26, 0x00, 0x00, 0xe4, 0x26, 0x00, 0x00, 0xd4, 0x22, 0x00,
    0x00, 0xcc, 0x22, 0x00, 0x00, 0xbc, 0x02, 0x00, 0x00, 0xb4, 0x02, 0x00, 0x00,
    0xa4, 0x00, 0x00, 0x00, 0x9c, 0x00, 0x00, 0x00, 0x94, 0x00, 0x00, 0x00, 0x8c,
    0x00, 0x00, 0x00, 0x6c, 0x00, 0x00, 0x00, 0x04, 0x00, 0x00, 0x00, 0x46, 0xd5,
    0xff, 0xff, 0x04, 0x00, 0x00, 0x00, 0x58, 0x00, 0x00, 0x00, 0x0c, 0x00, 0x00,
    0x00, 0x08, 0x00, 0x0e, 0x00, 0x08, 0x00, 0x04, 0x00, 0x08, 0x00, 0x00, 0x00,
    0x10, 0x00, 0x00, 0x00, 0x28, 0x00, 0x00, 0x00, 0x00, 0x00, 0x06, 0x00, 0x08,
    0x00, 0x04, 0x00, 0x06, 0x00, 0x00, 0x00, 0x04, 0x00, 0x00, 0x00, 0x01, 0x00,
    0x00, 0x00, 0xd0, 0x07, 0x00, 0x00, 0x00, 0x00, 0x0a, 0x00, 0x10, 0x00, 0x0c,
    0x00, 0x08, 0x00, 0x04, 0x00, 0x0a, 0x00, 0x00, 0x00, 0x02, 0x00, 0x00, 0x00,
    0x02, 0x00, 0x00, 0x00, 0x04, 0x00, 0x00, 0x00, 0x05, 0x00, 0x00, 0x00, 0x32,
    0x2e, 0x39, 0x2e, 0x31, 0x00, 0x00, 0x00, 0xaa, 0xd5, 0xff, 0xff, 0x04, 0x00,
    0x00, 0x00, 0x10, 0x00, 0x00, 0x00, 0x31, 0x2e, 0x31, 0x34, 0x2e, 0x30, 0x00,
    0x00, 0x00, 0x00, 0x00, 0x00, 0x00, 0x00, 0x00, 0x00, 0x94, 0xcc, 0xff, 0xff,
    0x98, 0xcc, 0xff, 0xff, 0x9c, 0xcc, 0xff, 0xff, 0xd2, 0xd5, 0xff, 0xff, 0x04,
    0x00, 0x00, 0x00, 0x00, 0x02, 0x00, 0x00, 0xd5, 0xe5, 0xee, 0xc7, 0xe9, 0xed,
    0xed, 0xec, 0xee, 0xc1, 0xe5, 0xeb, 0xf4, 0xdd, 0xe7, 0xc5, 0xc8, 0xcf, 0xdd,
    0x08, 0xe5, 0xdb, 0xda, 0xeb, 0xc7, 0xf5, 0xe5, 0xcb, 0xc4, 0x81, 0xd8, 0xe8,
    0xd7, 0xda, 0xdd, 0xc9, 0xd9, 0xe8, 0xe0, 0xb0, 0xe3, 0xfb, 0x04, 0xe4, 0xc7,
    0xdd, 0xb1, 0xdc, 0xe7, 0xdc, 0xe9, 0xf1, 0xd0, 0xda, 0xe7, 0xe9, 0xd6, 0xda,
    0xdf, 0xe9, 0xdd, 0xe4, 0xf5, 0xcf, 0xd8, 0x0c, 0xfd, 0xec, 0x44, 0xe7, 0xfe,
    0x35, 0x19, 0x08, 0x03, 0xe9, 0x14, 0xee, 0xfc, 0xd3, 0xdc, 0xfe, 0xf5, 0x04,
    0xf7, 0xfb, 0xf4, 0xc0, 0xfb, 0x00, 0x08, 0xef, 0xdf, 0xec, 0x09, 0xfb, 0xdc,
    0xe4, 0xf5, 0x12, 0xdf, 0x0c, 0xe4, 0x98, 0x0b, 0x24, 0x03, 0x02, 0x10, 0xfe,
    0xfd, 0xe4, 0x2e, 0x1e, 0xf5, 0x0b, 0xde, 0x01, 0xff, 0xfc, 0xdd, 0x03, 0xf5,
    0xc9, 0x12, 0xfb, 0x31, 0xf3, 0x08, 0xfc, 0x04, 0x01, 0xf2, 0x05, 0xf7, 0xf3,
    0xeb, 0xf9, 0xf3, 0x03, 0xf4, 0x08, 0x06, 0x03, 0x05, 0xfd, 0xf9, 0xff, 0xfb,
    0x01, 0x06, 0xfc, 0x07, 0xe7, 0x06, 0xfd, 0x03, 0xf7, 0xfc, 0xf7, 0x04, 0x04,
    0xf4, 0x03, 0xfb, 0x00, 0xff, 0x0c, 0x0d, 0xf5, 0xf9, 0xfd, 0x01, 0x05, 0x02,
    0xfc, 0xf5, 0xec, 0xf8, 0xf6, 0xfe, 0xf7, 0xf8, 0xf6, 0xf2, 0xf2, 0xf4, 0xff,
    0xf4, 0xfa, 0xfa, 0xfd, 0x00, 0x08, 0xd6, 0x02, 0xfb, 0x03, 0x0c, 0xfa, 0x10,
    0xf2, 0xfa, 0x06, 0x0a, 0xff, 0x0b, 0x04, 0x06, 0x04, 0xfa, 0x03, 0xfd, 0x00,
    0xfd, 0xfe, 0xfb, 0xf4, 0x00, 0x02, 0xf9, 0xfe, 0xfb, 0x04, 0x07, 0x05, 0xfc,
    0xf1, 0x02, 0xf5, 0x02, 0xf9, 0xfd, 0x03, 0x02, 0x01, 0x06, 0xfa, 0xf4, 0x01,
    0xef, 0xf2, 0xf2, 0xf8, 0xfc, 0xf7, 0x07, 0x14, 0x07, 0xff, 0xf5, 0xf4, 0xf6,
    0x05, 0xf9, 0x05, 0x09, 0xf8, 0x0a, 0xfb, 0xbf, 0xfb, 0x00, 0xf6, 0xff, 0xfe,
    0x0f, 0x04, 0xf5, 0x03, 0xf6, 0x03, 0xf8, 0xe7, 0x04, 0xff, 0x08, 0xf7, 0x01,
    0xfd, 0xfd, 0xff, 0xf0, 0xed, 0xf4, 0xf1, 0x01, 0x00, 0x03, 0x00, 0x02, 0x07,
    0x06, 0x07, 0x00, 0xee, 0xfe, 0x01, 0xf8, 0xff, 0xfd, 0x00, 0xff, 0x04, 0x06,
    0xf2, 0x01, 0xf6, 0xff, 0x01, 0xfb, 0xef, 0x03, 0xfe, 0x0b, 0x02, 0xfa, 0x06,
    0xeb, 0xf7, 0x04, 0xfa, 0x08, 0x09, 0xe7, 0xf8, 0xf7, 0x0c, 0xfb, 0xf6, 0x08,
    0x00, 0x05, 0xf9, 0xf4, 0x05, 0xf8, 0xff, 0xfd, 0xf9, 0xff, 0xf8, 0xf0, 0xfd,
    0x02, 0x00, 0xfc, 0x00, 0xf8, 0xfb, 0x09, 0xff, 0x09, 0xf0, 0x0b, 0x02, 0x04,
    0xf7, 0x01, 0x01, 0xfc, 0xf5, 0xeb, 0x08, 0x0b, 0x03, 0x01, 0xf9, 0x01, 0x05,
    0xf7, 0xf1, 0x00, 0x07, 0xf9, 0xf3, 0xf5, 0xf1, 0x02, 0x05, 0xf3, 0x08, 0xe1,
    0xee, 0x00, 0x05, 0xed, 0x00, 0xec, 0x04, 0x05, 0xf5, 0xf7, 0xfa, 0xef, 0x00,
    0xfd, 0x02, 0xfc, 0xfc, 0x04, 0x06, 0x05, 0xfa, 0xfc, 0xfa, 0x01, 0xe9, 0xfa,
    0xfe, 0xff, 0xfb, 0xf8, 0xff, 0xf8, 0x04, 0x08, 0x06, 0xf5, 0xfb, 0x02, 0xfd,
    0xf5, 0xf5, 0xf7, 0xfb, 0xf5, 0xfa, 0xf8, 0x06, 0xfb, 0xfd, 0xef, 0xf1, 0x1d,
    0x09, 0x05, 0xf6, 0x05, 0xec, 0xf1, 0x2b, 0xf3, 0xf6, 0x04, 0x04, 0xee, 0x03,
    0xf8, 0xdc, 0xf8, 0x06, 0xb1, 0xf0, 0xe2, 0xf5, 0xdb, 0x31, 0xf2, 0xef, 0x06,
    0x04, 0xe7, 0xdb, 0x0b, 0x00, 0xfd, 0xfa, 0xf0, 0xdd, 0x07, 0xf6, 0xfc, 0xfc,
    0xee, 0xfe, 0xfd, 0xfd, 0xf9, 0x0a, 0xdb, 0xea, 0xfc, 0xf0, 0xf5, 0xdc, 0xfa,
    0xdc, 0xe9, 0xff, 0x07, 0xd9, 0xe4, 0xf9, 0x00, 0x02, 0x07, 0xf5, 0xe2, 0xfe,
    0x06, 0xfb, 0xfe, 0x0b, 0x00, 0xe2, 0xe9, 0x00, 0xf4, 0xfc, 0x03, 0x00, 0xac,
    0xce, 0xff, 0xff, 0xe2, 0xd7, 0xff, 0xff, 0x04, 0x00, 0x00, 0x00, 0x00, 0x20,
    0x00, 0x00, 0xfd, 0x0a, 0xf5, 0xfd, 0xf5, 0xf8, 0x05, 0x05, 0x05, 0x05, 0x06,
    0xf5, 0xfb, 0xfd, 0xfa, 0xf9, 0xff, 0xfd, 0xf1, 0xf5, 0x06, 0x10, 0x0c, 0xf5,
    0x06, 0x00, 0xfd, 0xfe, 0x08, 0x06, 0xf6, 0x03, 0xf3, 0x04, 0x07, 0xfa, 0x00,
    0xfa, 0xf4, 0xfc, 0x03, 0x07, 0x09, 0x02, 0xff, 0x07, 0x0b, 0x09, 0x0c, 0x02,
    0x01, 0x02, 0xff, 0x04, 0xf6, 0x05, 0x06, 0x07, 0x05, 0xfb, 0x0f, 0x07, 0xf8,
    0x02, 0x02, 0xfd, 0x13, 0x05, 0xff, 0xfc, 0xfb, 0xfb, 0x09, 0x05, 0xff, 0x05,
    0xfd, 0xf6, 0xfe, 0x09, 0x0a, 0xf8, 0xfd, 0xf4, 0x06, 0xfe, 0x0c, 0xfe, 0x00,
    0xfd, 0x19, 0xfb, 0x04, 0x01, 0xfd, 0xfa, 0x07, 0x03, 0x03, 0x01, 0x04, 0x09,
    0x05, 0xfe, 0x06, 0x00, 0xf0, 0xee, 0x08, 0xfc, 0xf6, 0xfa, 0x04, 0x07, 0x07,
    0xfe, 0xf3, 0x05, 0xfc, 0x00, 0x06, 0x04, 0x0f, 0x03, 0x0d, 0xfe, 0x06, 0x02,
    0xfd, 0x06, 0x03, 0xfc, 0x04, 0xfd, 0x22, 0xf8, 0x08, 0x04, 0x05, 0xf7, 0x02,
    0xe7, 0xee, 0x07, 0x06, 0xae, 0xf0, 0x01, 0x08, 0x0b, 0xd4, 0x02, 0x0d, 0xfd,
    0xfa, 0xec, 0xfd, 0xfb, 0x2a, 0x0b, 0xff, 0xf5, 0xfc, 0x05, 0xfd, 0xfe, 0x04,
    0xf3, 0xfe, 0x05, 0xdc, 0x04, 0x06, 0xe9, 0xf9, 0x06, 0x0c, 0x07, 0xfd, 0x06,
    0x01, 0xfb, 0x04, 0xfc, 0x09, 0xf6, 0xfe, 0xf1, 0x01, 0x06, 0xed, 0x06, 0xfb,
    0xf7, 0xf1, 0xfe, 0x04, 0xef, 0x05, 0x04, 0xfe, 0xfc, 0x09, 0x07, 0xf5, 0x01,
    0xfe, 0x03, 0xfa, 0x04, 0x08, 0xff, 0x0c, 0x07, 0x0e, 0xff, 0xee, 0x01, 0xff,
    0x07, 0xf9, 0x06, 0xf9, 0xfe, 0xf8, 0x00, 0xf7, 0xfb, 0x06, 0x04, 0xf5, 0xf5,
    0xf8, 0xfe, 0xfd, 0xf9, 0xd9, 0x01, 0xf1, 0xfe, 0xf4, 0x0a, 0x02, 0xef, 0xf3,
    0xff, 0xff, 0x07, 0xfd, 0x07, 0xe8, 0xfe, 0x08, 0xfe, 0xfb, 0x03, 0xfd, 0x03,
    0xe8, 0xe8, 0x07, 0xf8, 0x0a, 0x03, 0x05, 0xfd, 0xfd, 0xfe, 0xfb, 0x0b, 0xeb,
    0xfd, 0xff, 0xf0, 0xf8, 0x09, 0xf6, 0x0d, 0xe8, 0xf9, 0x0d, 0x00, 0xec, 0xfe,
    0x12, 0x00, 0xf2, 0x00, 0xf9, 0x00, 0x0a, 0xef, 0x14, 0x06, 0x03, 0x0d, 0xeb,
    0xff, 0x01, 0xef, 0xf7, 0x0b, 0xf3, 0xf3, 0x04, 0xf4, 0x01, 0x04, 0xff, 0xf8,
    0xd5, 0xfa, 0x01, 0x12, 0xfe, 0x03, 0xf7, 0xe1, 0xe8, 0xfa, 0x1a, 0xec, 0x20,
    0xf8, 0x00, 0x15, 0x0a, 0xfd, 0xfb, 0xfd, 0x07, 0x0b, 0xfe, 0xfd, 0xee, 0x07,
    0x05, 0x06, 0x05, 0x00, 0xff, 0xf4, 0xe9, 0x04, 0xf8, 0x09, 0x0a, 0x06, 0x07,
    0x05, 0x0b, 0x00, 0xf6, 0x06, 0x0c, 0xf9, 0xfc, 0x05, 0x09, 0xfe, 0xd7, 0xf9,
    0xf7, 0xfa, 0xfc, 0xfe, 0x0b, 0x05, 0x0a, 0x08, 0xff, 0xf2, 0x01, 0xe6, 0x01,
    0xf7, 0xef, 0x09, 0x06, 0x05, 0xf9, 0x07, 0xec, 0xf6, 0xf7, 0x04, 0x08, 0xf8,
    0x04, 0xe4, 0xf7, 0xf0, 0x03, 0x05, 0x03, 0x00, 0x06, 0xfd, 0x03, 0x02, 0xd6,
    0x06, 0xff, 0xfe, 0x0a, 0xff, 0xfd, 0xf7, 0xfc, 0x05, 0xff, 0xd4, 0x04, 0x04,
    0x08, 0xff, 0x02, 0xfb, 0xff, 0x05, 0xff, 0xef, 0xf9, 0xfd, 0xef, 0x02, 0xfe,
    0xf8, 0xf3, 0x02, 0x07, 0x00, 0x00, 0xfd, 0x02, 0x07, 0x00, 0x00, 0x0f, 0xff,
    0x0a, 0x13, 0xfd, 0xfc, 0x06, 0x06, 0x01, 0x01, 0x05, 0x06, 0x02, 0xf9, 0xe9,
    0xe3, 0x06, 0xe7, 0x02, 0xe9, 0x03, 0xfd, 0x05, 0xf4, 0x10, 0x09, 0xfd, 0xfa,
    0x02, 0x0c, 0x00, 0x03, 0x05, 0x0a, 0x02, 0x00, 0xff, 0xf6, 0x08, 0xfc, 0xf1,
    0x04, 0x10, 0xff, 0x04, 0xff, 0x02, 0xfd, 0xfb, 0xff, 0x0b, 0x07, 0xfe, 0xf7,
    0x00, 0xe3, 0xfd, 0xfa, 0xff, 0x04, 0x0b, 0x09, 0x0a, 0x0a, 0x06, 0xf5, 0xe3,
    0x03, 0xff, 0x02, 0x0b, 0x0a, 0x03, 0xfb, 0xf9, 0xdc, 0xfd, 0xd2, 0x0e, 0xdb,
    0x18, 0xf7, 0xfc, 0xdb, 0xc4, 0xff, 0xf8, 0xf9, 0x00, 0x04, 0x05, 0x04, 0xe2,
    0xea, 0x0a, 0x17, 0xe7, 0xfd, 0xfc, 0xfa, 0x05, 0x09, 0xf6, 0xca, 0x08, 0xf4,
    0xff, 0x01, 0x0e, 0xfd, 0xf1, 0xfd, 0x01, 0x0c, 0xea, 0x06, 0xe4, 0x05, 0xff,
    0x05, 0xfe, 0x06, 0xf9, 0x0a, 0x08, 0x0b, 0x07, 0xf8, 0xfc, 0x0a, 0x0d, 0xfd,
    0xfc, 0xfe, 0xea, 0x0a, 0x0f, 0x04, 0x02, 0xf8, 0xd7, 0xff, 0x02, 0xe1, 0x17,
    0xfb, 0x11, 0xe9, 0xf7, 0xf0, 0xdd, 0x09, 0x04, 0x08, 0xfc, 0x0a, 0xfc, 0xfb,
    0x00, 0x06, 0x00, 0xd3, 0x04, 0xfd, 0xf7, 0xfe, 0x07, 0x02, 0x13, 0xed, 0x0a,
    0x06, 0x00, 0x03, 0x12, 0xe7, 0xfa, 0x04, 0x0e, 0xfe, 0x02, 0x00, 0x0a, 0x08,
    0xe9, 0xe8, 0xfd, 0xf8, 0x04, 0xcd, 0x06, 0xee, 0xf8, 0xf9, 0xfd, 0x09, 0xfe,
    0xfc, 0x06, 0x01, 0x03, 0xf9, 0x03, 0xfd, 0x03, 0x03, 0x08, 0x0f, 0xf1, 0x05,
    0xfe, 0xff, 0xfb, 0xfb, 0x01, 0xf8, 0x00, 0x0a, 0xff, 0x07, 0xfc, 0x0e, 0x05,
    0xfd, 0xfb, 0x09, 0x08, 0xf6, 0x02, 0x04, 0x08, 0x00, 0x01, 0x0e, 0xff, 0xff,
    0xf5, 0xfa, 0xf8, 0x0d, 0x00, 0x04, 0xff, 0x08, 0xf8, 0xf8, 0xff, 0x0a, 0xfb,
    0xf8, 0xff, 0xf7, 0xff, 0xfa, 0x02, 0x02, 0x05, 0xfe, 0x08, 0xef, 0x03, 0x00,
    0x07, 0x0c, 0x08, 0xf9, 0x02, 0x0c, 0xfc, 0xfa, 0x06, 0xfe, 0x15, 0x02, 0xfc,
    0xf7, 0x06, 0xff, 0x04, 0x08, 0x03, 0xf5, 0xf9, 0xfc, 0x07, 0xfa, 0x0d, 0xf9,
    0xf2, 0x04, 0x06, 0xf7, 0x16, 0xf2, 0x00, 0x0c, 0xf4, 0xfc, 0x08, 0xfd, 0x06,
    0x03, 0xf1, 0xff, 0x14, 0x05, 0x0a, 0xf8, 0x09, 0xf4, 0x01, 0x06, 0x0b, 0xfc,
    0xff, 0x01, 0xf7, 0xfa, 0x00, 0x04, 0x0b, 0xf8, 0x00, 0xf9, 0x06, 0x02, 0x04,
    0x06, 0x06, 0x07, 0x0a, 0xf9, 0x02, 0xf8, 0xfe, 0x16, 0x15, 0xff, 0x00, 0x02,
    0x01, 0xff, 0xfe, 0xfb, 0xed, 0x03, 0xfd, 0xef, 0x00, 0xef, 0xfb, 0xf9, 0xe4,
    0xfb, 0x09, 0xd5, 0xf9, 0x03, 0x0e, 0xf6, 0xfd, 0xf6, 0xfe, 0xf1, 0xfb, 0x02,
    0xf1, 0x08, 0x03, 0xfc, 0xfc, 0xf9, 0xdb, 0xfd, 0x06, 0x05, 0x01, 0xf8, 0x03,
    0xf3, 0x08, 0x03, 0x07, 0xaf, 0x04, 0xe8, 0x05, 0x04, 0x03, 0xf2, 0x03, 0x09,
    0x03, 0xfc, 0xfb, 0xfe, 0xf5, 0x05, 0x02, 0xf8, 0xfa, 0x06, 0x07, 0x02, 0x0c,
    0xf7, 0x01, 0xff, 0x01, 0x05, 0xff, 0x06, 0x09, 0xfd, 0x04, 0x04, 0x01, 0xef,
    0xef, 0x04, 0x08, 0xf9, 0x03, 0x0e, 0x0d, 0x02, 0xfa, 0xe6, 0xde, 0x02, 0x03,
    0xf6, 0x06, 0x02, 0xed, 0x09, 0x04, 0xfb, 0xcd, 0x09, 0x07, 0xfd, 0xea, 0xe2,
    0x11, 0x01, 0xef, 0x03, 0x08, 0xf9, 0x07, 0xfe, 0xf6, 0x00, 0x0d, 0x07, 0x03,
    0x12, 0xbf, 0xe0, 0x05, 0x03, 0x0f, 0xe9, 0xf5, 0xf0, 0xc5, 0xda, 0x00, 0xf9,
    0x0b, 0x02, 0xf0, 0x03, 0xe8, 0xfd, 0x06, 0xd9, 0x0d, 0xfa, 0x02, 0x02, 0x02,
    0xf8, 0xfb, 0xde, 0x03, 0x03, 0xe6, 0x04, 0xfb, 0xfd, 0xe8, 0x07, 0xf8, 0x02,
    0x04, 0x02, 0xf3, 0xfd, 0x01, 0xf4, 0xf2, 0xe9, 0x0c, 0x03, 0xfd, 0xfe, 0xe0,
    0xf2, 0xfc, 0xff, 0x0a, 0xfc, 0xfd, 0xe7, 0xf9, 0xfe, 0xfb, 0x0c, 0xdc, 0xfe,
    0x00, 0x03, 0xfc, 0x0c, 0x06, 0xe2, 0xf1, 0x1b, 0x09, 0xdf, 0x01, 0xe5, 0x02,
    0x00, 0x04, 0x01, 0xc4, 0xe9, 0x04, 0xd1, 0xf3, 0x05, 0xfb, 0x04, 0x04, 0x05,
    0x17, 0x06, 0xfe, 0xfe, 0xec, 0xff, 0x04, 0x09, 0x05, 0xff, 0xf9, 0xd6, 0xd7,
    0x0d, 0x0b, 0x19, 0x11, 0x00, 0x06, 0xe1, 0x01, 0x17, 0xfe, 0x00, 0x00, 0x06,
    0xfa, 0x02, 0xfa, 0xe2, 0x0a, 0xf6, 0x0a, 0xfc, 0xf8, 0x04, 0x04, 0xff, 0xfd,
    0x00, 0xf4, 0xff, 0x08, 0x02, 0xe8, 0xcf, 0xf8, 0x07, 0xfe, 0x07, 0x0b, 0x05,
    0x0c, 0xeb, 0xea, 0xfe, 0xf7, 0xcf, 0xf4, 0xfe, 0x05, 0xea, 0xf4, 0x04, 0xfd,
    0xeb, 0xf9, 0xf6, 0x01, 0x1a, 0xf5, 0xf8, 0xf5, 0xfc, 0x05, 0x11, 0xf9, 0x02,
    0x09, 0xfe, 0x05, 0x07, 0x04, 0x00, 0x09, 0x00, 0x08, 0x06, 0xdc, 0x0a, 0x0d,
    0x02, 0xfc, 0x02, 0x06, 0x00, 0xfe, 0xf4, 0xff, 0xf7, 0x0d, 0x05, 0xee, 0xff,
    0x12, 0xe7, 0x12, 0xeb, 0xe7, 0x13, 0xf8, 0x10, 0xf6, 0xee, 0x02, 0x0c, 0xee,
    0x05, 0xf9, 0xf6, 0x01, 0x1a, 0xfa, 0xf6, 0x13, 0xec, 0xf1, 0xeb, 0x0d, 0x08,
    0x04, 0x04, 0xc3, 0x08, 0xcd, 0x0c, 0x01, 0x00, 0x09, 0xec, 0xdb, 0xe9, 0x1c,
    0x0c, 0xe2, 0xff, 0xfe, 0xfe, 0x0c, 0x0b, 0x03, 0xfa, 0x08, 0xf2, 0x00, 0x09,
    0xfa, 0x05, 0xfc, 0xed, 0xff, 0xf3, 0x0f, 0xf3, 0x01, 0xf4, 0xfa, 0xf7, 0xfe,
    0xfc, 0xec, 0x08, 0xf8, 0x0a, 0xfc, 0xf7, 0x07, 0xfe, 0xca, 0xfe, 0xea, 0x02,
    0x01, 0x11, 0xee, 0xf8, 0xf6, 0xf9, 0x14, 0xfd, 0x06, 0xfc, 0xfc, 0xf7, 0xf9,
    0xff, 0xfc, 0xf8, 0xed, 0xe4, 0xf5, 0xe2, 0xf8, 0x01, 0x05, 0xf8, 0xff, 0xf3,
    0xf7, 0xf2, 0x00, 0x07, 0xf8, 0xf9, 0x17, 0x05, 0xfc, 0xf1, 0xfa, 0x0d, 0xfa,
    0x00, 0xfe, 0x1a, 0x08, 0x04, 0xed, 0x02, 0xfb, 0xff, 0x03, 0xe4, 0x06, 0x08,
    0xf3, 0x05, 0x17, 0xf9, 0x10, 0x01, 0xfa, 0x05, 0x08, 0xf8, 0xfd, 0x0f, 0xf3,
    0x01, 0xf2, 0xf1, 0x06, 0x07, 0x02, 0x14, 0xf9, 0x07, 0x15, 0xf0, 0x10, 0xf7,
    0xf5, 0x03, 0xf3, 0xfa, 0x00, 0x0c, 0x03, 0xf9, 0xfa, 0x03, 0x01, 0xfe, 0x02,
    0xff, 0x06, 0x0f, 0x04, 0xfb, 0x01, 0x0f, 0x16, 0x0a, 0xee, 0xf5, 0xf8, 0xf2,
    0xf5, 0xe7, 0x0d, 0x04, 0xfd, 0xf9, 0xe4, 0xfc, 0x00, 0x04, 0xc8, 0x0b, 0x00,
    0xfc, 0x08, 0xfa, 0xf1, 0xfe, 0x08, 0x03, 0xe4, 0xef, 0x08, 0xc5, 0xfd, 0xfa,
    0x00, 0x06, 0x0d, 0xf5, 0x04, 0x03, 0xff, 0xfa, 0x04, 0x00, 0x03, 0x03, 0x0d,
    0xfe, 0x01, 0xf4, 0x03, 0xe5, 0xed, 0x02, 0xf5, 0x03, 0xff, 0x17, 0x06, 0x06,
    0xff, 0xfd, 0x09, 0x01, 0x04, 0x07, 0xf6, 0xff, 0x12, 0xfc, 0xae, 0x08, 0x01,
    0xfb, 0x08, 0xf9, 0x0d, 0xff, 0x07, 0xfe, 0xf7, 0xfe, 0x08, 0x04, 0xe9, 0xfa,
    0x18, 0x05, 0x08, 0x0c, 0x05, 0x00, 0xff, 0xed, 0xf2, 0x04, 0x00, 0x00, 0xda,
    0xe5, 0x0d, 0xd4, 0x01, 0x05, 0xf3, 0xe8, 0xfb, 0xe9, 0x01, 0xf7, 0x01, 0x02,
    0xff, 0x09, 0x03, 0x02, 0xfe, 0x01, 0xfc, 0xf9, 0xdd, 0xfe, 0xb7, 0x03, 0x05,
    0x00, 0xff, 0x18, 0xfc, 0x00, 0x01, 0x06, 0xeb, 0xf0, 0x01, 0xf3, 0x02, 0x0c,
    0x05, 0xdf, 0x18, 0x03, 0xdb, 0xf3, 0x06, 0xfb, 0xfe, 0x07, 0x07, 0x0d, 0x05,
    0x00, 0xf7, 0xf4, 0x00, 0xfe, 0x03, 0x03, 0xe6, 0x02, 0x01, 0x06, 0xee, 0xfd,
    0x0b, 0x04, 0x02, 0xfb, 0x12, 0x06, 0xfc, 0x04, 0x06, 0x02, 0xfe, 0xeb, 0xf6,
    0xe7, 0x01, 0x04, 0xfc, 0x04, 0xf3, 0x00, 0x07, 0x0b, 0xf7, 0x05, 0x00, 0x0a,
    0xff, 0xf6, 0x08, 0xf2, 0x00, 0x02, 0xf6, 0x01, 0xff, 0xf9, 0x02, 0xfc, 0xf7,
    0xdc, 0x01, 0x0a, 0xf3, 0x03, 0xe4, 0xff, 0x06, 0x0e, 0xfd, 0x03, 0xf3, 0x06,
    0x05, 0x12, 0x04, 0x01, 0xfc, 0x0d, 0x01, 0x06, 0x06, 0xf8, 0xff, 0x05, 0x0a,
    0x04, 0x05, 0xf1, 0xf7, 0x08, 0xfc, 0x0b, 0xff, 0x0c, 0xf7, 0xfc, 0x00, 0xfd,
    0x07, 0xfe, 0xf6, 0x02, 0x02, 0x07, 0x03, 0xfc, 0xff, 0xff, 0x0b, 0x06, 0xff,
    0xf3, 0xfa, 0x03, 0x03, 0x02, 0x05, 0x02, 0xf4, 0x01, 0x09, 0xfc, 0x0a, 0xf9,
    0x05, 0x01, 0xfd, 0x05, 0xee, 0x02, 0xfe, 0x09, 0x04, 0x08, 0x21, 0xfb, 0x11,
    0xff, 0xff, 0xf3, 0x02, 0x01, 0x04, 0x01, 0x06, 0xcf, 0x01, 0x41, 0xd5, 0xfd,
    0x04, 0x05, 0x07, 0xf8, 0xff, 0x00, 0xfd, 0x08, 0xe3, 0xfd, 0xf7, 0xd5, 0xd1,
    0x03, 0x01, 0xef, 0x0d, 0x12, 0x08, 0xff, 0xfa, 0x09, 0xfe, 0xf7, 0xfd, 0x04,
    0x04, 0xf3, 0xfe, 0xfb, 0x01, 0xf0, 0xff, 0xfa, 0x00, 0xf6, 0xf8, 0xf8, 0x04,
    0x0d, 0xd5, 0x13, 0x0b, 0x0d, 0xfa, 0xf5, 0x04, 0xf9, 0x08, 0xf6, 0xfc, 0x04,
    0x04, 0xeb, 0x06, 0xf8, 0x09, 0x01, 0x06, 0x05, 0xf6, 0xfa, 0x0f, 0x00, 0xe4,
    0x03, 0x07, 0xfd, 0xf8, 0xe7, 0xf4, 0xfe, 0x05, 0xff, 0xe3, 0xfd, 0x06, 0xf8,
    0xf9, 0xda, 0xf2, 0xfa, 0x00, 0x06, 0xfe, 0xed, 0xfe, 0x05, 0x02, 0x07, 0xf7,
    0xd3, 0x03, 0xdd, 0xfe, 0xfe, 0xff, 0x13, 0xf2, 0x0c, 0x03, 0xf7, 0xf5, 0x01,
    0x01, 0x19, 0x11, 0xff, 0xfb, 0xfa, 0xfd, 0xfa, 0x0f, 0x02, 0x01, 0xfe, 0x00,
    0xfc, 0xfb, 0xfb, 0xf6, 0xfe, 0x04, 0x05, 0xfa, 0xf1, 0x0b, 0xe3, 0x05, 0x05,
    0x01, 0xfc, 0xed, 0x05, 0x08, 0x07, 0x03, 0x07, 0xf6, 0x05, 0xf3, 0x02, 0x08,
    0xef, 0xfb, 0xfc, 0xfb, 0xfe, 0x0a, 0xfa, 0x10, 0xea, 0xfc, 0xe0, 0xfe, 0x03,
    0xd7, 0xfe, 0x00, 0x00, 0x02, 0xf8, 0xf3, 0xf1, 0xea, 0xf8, 0x00, 0x01, 0x05,
    0xfe, 0x09, 0xfb, 0x10, 0x0f, 0x01, 0xa9, 0xfa, 0xfd, 0x09, 0x02, 0xfe, 0x07,
    0xfb, 0x02, 0xff, 0x06, 0x02, 0x02, 0x07, 0x02, 0x08, 0x0c, 0xfa, 0x0b, 0xf2,
    0x02, 0xf7, 0x03, 0xfe, 0x02, 0x07, 0xff, 0x0c, 0x0d, 0xfd, 0xfe, 0xed, 0x02,
    0xd6, 0x03, 0xf9, 0xff, 0x11, 0x02, 0x00, 0x08, 0x08, 0x07, 0x0a, 0x08, 0x0c,
    0xf7, 0x02, 0x05, 0xf6, 0xf2, 0xef, 0x04, 0x02, 0xf5, 0x04, 0x01, 0xfa, 0x04,
    0xf2, 0x02, 0x09, 0xef, 0xfd, 0x1a, 0x03, 0x06, 0x08, 0xf5, 0xf8, 0x02, 0x04,
    0xff, 0x05, 0x0f, 0xf8, 0xf8, 0x07, 0x04, 0x06, 0xfd, 0x01, 0x01, 0xf2, 0xe5,
    0x01, 0x06, 0x0a, 0xda, 0xfb, 0x03, 0x12, 0x09, 0xed, 0x02, 0x00, 0xfb, 0xf7,
    0x00, 0x01, 0x01, 0xe7, 0xf6, 0x07, 0x01, 0x01, 0x00, 0x02, 0xfc, 0xf0, 0xf9,
    0x04, 0xfd, 0x01, 0xf1, 0xfd, 0x14, 0xf9, 0xf2, 0x00, 0xfb, 0xf0, 0xd8, 0x03,
    0xf5, 0x12, 0xf6, 0xf7, 0x08, 0x17, 0x10, 0x02, 0xf0, 0x08, 0x05, 0x04, 0xf5,
    0x03, 0x0e, 0x03, 0xf9, 0xfc, 0xf7, 0x0d, 0x02, 0x08, 0x03, 0xf5, 0xf8, 0x18,
    0x02, 0x02, 0x00, 0x05, 0xf2, 0x02, 0x0e, 0x00, 0x0c, 0xfa, 0x04, 0x05, 0xf7,
    0x05, 0xeb, 0xf9, 0xff, 0xfd, 0xfb, 0xef, 0xe2, 0xfd, 0x05, 0x0c, 0xed, 0x07,
    0x08, 0x08, 0xff, 0xee, 0xe9, 0x06, 0x03, 0x15, 0xf6, 0x00, 0x14, 0x02, 0x03,
    0x05, 0x1b, 0x0b, 0xf3, 0xfe, 0xfd, 0xef, 0x03, 0xfe, 0x03, 0xfe, 0x0c, 0xf1,
    0x02, 0x00, 0x06, 0xfb, 0xe9, 0x04, 0xf9, 0x0f, 0xf8, 0xfa, 0xfc, 0xff, 0xcd,
    0x0c, 0x04, 0xfc, 0x00, 0x11, 0x00, 0x19, 0x10, 0xfa, 0xfe, 0xf9, 0x06, 0x0f,
    0xfc, 0xee, 0x00, 0x05, 0xfa, 0xf7, 0x01, 0xfe, 0x09, 0x01, 0x04, 0x09, 0x01,
    0x05, 0x03, 0xfa, 0xe8, 0xfc, 0x09, 0xfa, 0xf9, 0x00, 0x07, 0xf4, 0xf8, 0x0a,
    0x05, 0x0d, 0x0a, 0x06, 0xff, 0x0c, 0xf6, 0xf9, 0xff, 0x07, 0xf6, 0xfe, 0xfc,
    0xf8, 0x08, 0xfe, 0xf1, 0xf5, 0x04, 0xf7, 0x05, 0x0c, 0x05, 0xe5, 0xef, 0x01,
    0xda, 0x04, 0x03, 0xfe, 0xff, 0xf4, 0x10, 0x04, 0xf8, 0x04, 0xff, 0xff, 0x06,
    0xfb, 0xf1, 0x03, 0xff, 0x09, 0xf1, 0x04, 0xfd, 0x05, 0x02, 0xfc, 0x01, 0x02,
    0xf8, 0xef, 0xcb, 0x05, 0xfe, 0x12, 0xc6, 0xfe, 0xf0, 0x08, 0x05, 0xfe, 0x01,
    0xfe, 0xf7, 0x0b, 0x04, 0xfe, 0x0a, 0xfc, 0x07, 0x05, 0x04, 0x01, 0x05, 0x08,
    0x04, 0x01, 0x0f, 0x04, 0xfc, 0xed, 0xf3, 0xf7, 0x04, 0xf5, 0xf7, 0x00, 0xfd,
    0x00, 0x06, 0xf1, 0x12, 0xfb, 0x08, 0x00, 0xff, 0xfc, 0x01, 0xf4, 0x07, 0xf7,
    0x09, 0xf8, 0xf0, 0x04, 0x00, 0x08, 0x07, 0x01, 0x00, 0x04, 0x04, 0xff, 0xf1,
    0x0e, 0x06, 0xfa, 0xec, 0x02, 0xf5, 0x05, 0xf6, 0x02, 0x0b, 0xfc, 0x0c, 0xfa,
    0x00, 0xfe, 0x00, 0x07, 0x00, 0x07, 0x06, 0xf9, 0xf8, 0x03, 0x08, 0x05, 0x00,
    0xfb, 0x08, 0xfc, 0xff, 0x00, 0x0b, 0x03, 0x0f, 0xec, 0xf4, 0x01, 0x06, 0xf2,
    0x04, 0xfe, 0x04, 0x07, 0xfa, 0x00, 0x0a, 0x0d, 0x0c, 0xf6, 0xf7, 0x05, 0x02,
    0xf3, 0x0f, 0xff, 0x1c, 0xff, 0xf7, 0x01, 0xff, 0x03, 0x09, 0xfa, 0xef, 0x02,
    0x0a, 0xf5, 0xf6, 0x0e, 0xfe, 0x02, 0xfc, 0xff, 0xeb, 0x04, 0x08, 0xfa, 0xe2,
    0xf5, 0x00, 0xeb, 0xf7, 0x03, 0xf3, 0x09, 0xf8, 0xf1, 0x07, 0xff, 0x07, 0xee,
    0x0a, 0xf4, 0xf8, 0xfe, 0x08, 0x04, 0xf4, 0xfc, 0xf7, 0x00, 0xfd, 0x04, 0x07,
    0xf6, 0x03, 0x09, 0x04, 0xf5, 0x0b, 0x02, 0xfd, 0xf5, 0xff, 0xfe, 0x02, 0x00,
    0xfe, 0xfe, 0xf3, 0x01, 0xfa, 0xfd, 0x06, 0x04, 0xf7, 0xfc, 0x09, 0x06, 0xfb,
    0x0c, 0xf7, 0x03, 0xfe, 0xf9, 0xf8, 0xde, 0x11, 0x0b, 0x07, 0xe9, 0x00, 0xc6,
    0xf9, 0xf3, 0xff, 0x06, 0xfd, 0x04, 0xf8, 0x01, 0x04, 0xed, 0x09, 0xf6, 0xf6,
    0x02, 0x04, 0x04, 0x0e, 0xf4, 0x08, 0x19, 0xf9, 0x00, 0x04, 0xf8, 0xef, 0xee,
    0xf2, 0xf8, 0xfb, 0x00, 0xf9, 0x07, 0x06, 0x04, 0xef, 0x02, 0xf4, 0x00, 0x07,
    0xf7, 0x1e, 0x00, 0x05, 0x05, 0x01, 0x0f, 0x11, 0x0d, 0xfb, 0xe9, 0xfd, 0x01,
    0xfc, 0xf7, 0xff, 0xfe, 0x03, 0x00, 0x0a, 0x03, 0x01, 0xed, 0xff, 0xfc, 0x02,
    0x00, 0x09, 0x0f, 0x08, 0xe7, 0x05, 0x00, 0xff, 0x07, 0xff, 0xef, 0xf6, 0xf8,
    0x03, 0xff, 0xfc, 0xd9, 0x00, 0x03, 0xfc, 0xf2, 0x09, 0x03, 0x09, 0xf5, 0x11,
    0xfe, 0xf7, 0x04, 0x02, 0xfe, 0x04, 0xf6, 0xf4, 0xff, 0xf5, 0xfd, 0x00, 0x08,
    0x05, 0xfa, 0x03, 0x05, 0x10, 0x05, 0x04, 0xfb, 0xf7, 0xf4, 0xf6, 0xfb, 0x00,
    0x03, 0xed, 0x00, 0x08, 0xf7, 0xf3, 0x00, 0x02, 0x05, 0xfe, 0xf2, 0xfb, 0x00,
    0xfb, 0x02, 0x01, 0x0c, 0xf8, 0xff, 0x04, 0x07, 0xf7, 0xfe, 0x06, 0xef, 0x03,
    0x05, 0xfb, 0xfc, 0x06, 0x03, 0xf5, 0x05, 0xff, 0xf9, 0xfe, 0x0c, 0x05, 0x04,
    0x01, 0x06, 0x05, 0x0a, 0x03, 0xfc, 0xfd, 0xff, 0xf8, 0xfe, 0x08, 0xfd, 0xf2,
    0xf7, 0xfb, 0x08, 0x10, 0xf9, 0xf7, 0x09, 0xf6, 0x04, 0x08, 0x03, 0x01, 0xfe,
    0x05, 0x03, 0xea, 0x01, 0x02, 0xff, 0xfd, 0xfe, 0xfe, 0x02, 0xfc, 0x03, 0xfc,
    0xfb, 0x02, 0xff, 0x00, 0x00, 0xfd, 0xfc, 0xfd, 0x01, 0xfd, 0xfd, 0x01, 0xfd,
    0xff, 0xfd, 0xfc, 0x03, 0x03, 0xfd, 0xfe, 0x02, 0x01, 0xff, 0x03, 0x03, 0xfc,
    0xff, 0x02, 0x01, 0x00, 0xff, 0x03, 0x00, 0xfd, 0xfd, 0x02, 0xfd, 0xfc, 0xfd,
    0xfe, 0xfd, 0xfd, 0xfd, 0x00, 0xfc, 0xfe, 0x00, 0xff, 0xfd, 0x02, 0xff, 0x01,
    0x03, 0xff, 0xfd, 0xfd, 0x01, 0x02, 0x03, 0xfd, 0xff, 0x00, 0x02, 0xff, 0x01,
    0xfd, 0xfd, 0xfc, 0xfd, 0xfa, 0xfe, 0xfc, 0xfb, 0x01, 0xfd, 0xfe, 0xfd, 0xff,
    0xfe, 0xfd, 0x01, 0x00, 0xfb, 0xfc, 0xfd, 0x00, 0x01, 0xfc, 0xfe, 0xfc, 0xfe,
    0xfe, 0xfc, 0xfc, 0x01, 0xfc, 0x01, 0x02, 0x02, 0xfe, 0x01, 0xff, 0x03, 0x00,
    0xfe, 0xfc, 0xfd, 0xfd, 0x00, 0xfe, 0xfc, 0xfd, 0x00, 0xfb, 0xfe, 0x02, 0xfc,
    0x00, 0x09, 0x03, 0xed, 0xfc, 0x00, 0x07, 0xff, 0xfe, 0xf5, 0x01, 0x05, 0xee,
    0xcc, 0x02, 0x0c, 0x01, 0x04, 0xfb, 0x02, 0xf3, 0xf1, 0x02, 0x08, 0xf8, 0xf8,
    0x09, 0xf6, 0xf9, 0xfa, 0x01, 0x0a, 0xf8, 0xf5, 0x01, 0xf8, 0xee, 0x03, 0xfb,
    0xf7, 0xfb, 0xf8, 0xf7, 0x0d, 0xed, 0x03, 0xfa, 0xfa, 0xff, 0xfb, 0x05, 0x01,
    0xf2, 0x0a, 0xfe, 0xf5, 0x05, 0xff, 0x09, 0xfb, 0x00, 0x08, 0x0d, 0xfc, 0xf3,
    0x00, 0xe4, 0x03, 0x0c, 0x28, 0x09, 0x19, 0xf6, 0xf6, 0xfa, 0x0f, 0x00, 0x01,
    0x01, 0xfe, 0x03, 0x06, 0xf4, 0xe3, 0x07, 0x0d, 0x0a, 0xf5, 0x0a, 0x0b, 0xf9,
    0xf4, 0xfc, 0x03, 0x00, 0xfd, 0x05, 0xfc, 0xf2, 0x06, 0x06, 0xf6, 0x05, 0x00,
    0xfe, 0x04, 0xf1, 0x01, 0x0b, 0x01, 0x04, 0x00, 0x04, 0x06, 0x0a, 0x05, 0x02,
    0xe2, 0x09, 0x09, 0x00, 0xfc, 0xf7, 0x08, 0x00, 0x03, 0x09, 0xd6, 0x00, 0x00,
    0xf9, 0x05, 0xfc, 0x02, 0xf7, 0x13, 0x0a, 0xed, 0x02, 0xf1, 0xf9, 0x05, 0x12,
    0xf8, 0x00, 0x0b, 0x09, 0xf8, 0x0d, 0xfd, 0x08, 0x02, 0xfc, 0x0d, 0x02, 0xfd,
    0x05, 0xfe, 0xeb, 0xf8, 0x05, 0xf8, 0xf3, 0xf6, 0xff, 0x0b, 0x03, 0x01, 0xfe,
    0xfd, 0xe8, 0xfa, 0xf3, 0x0f, 0xf6, 0x03, 0x07, 0x04, 0x00, 0x09, 0xfd, 0xeb,
    0x06, 0x02, 0xf1, 0xfd, 0x05, 0x07, 0x02, 0x05, 0x0b, 0xfa, 0x0b, 0xe6, 0x03,
    0x28, 0xff, 0xf1, 0xf6, 0x0b, 0xf7, 0xfe, 0xfc, 0x04, 0x00, 0xff, 0x00, 0xf9,
    0xff, 0x08, 0x01, 0x03, 0x0a, 0xfd, 0xf4, 0x06, 0xf2, 0x09, 0xfe, 0x0f, 0xe9,
    0x07, 0x07, 0xf1, 0xf0, 0xfe, 0x03, 0x04, 0x07, 0xf3, 0x03, 0x0a, 0xf9, 0xf6,
    0xf1, 0x03, 0xf2, 0x05, 0xf8, 0xf6, 0xe1, 0x08, 0x00, 0xfb, 0x04, 0xfa, 0x02,
    0xfa, 0xf5, 0xf0, 0xff, 0xf6, 0xfd, 0x04, 0xff, 0xfc, 0x05, 0x01, 0x0e, 0x00,
    0x0a, 0xf8, 0xfa, 0x0d, 0xfe, 0x02, 0x0e, 0xfd, 0x05, 0xfe, 0x03, 0x0f, 0x13,
    0x01, 0xfc, 0x03, 0xf9, 0xfa, 0xfd, 0xfe, 0xee, 0xf1, 0x01, 0x06, 0xff, 0xfa,
    0x01, 0xf7, 0xfc, 0x0d, 0xff, 0x07, 0xf9, 0xfc, 0xfe, 0x01, 0x0d, 0x0a, 0xfc,
    0x0d, 0x0a, 0x08, 0xf1, 0x03, 0x04, 0x07, 0x06, 0x03, 0xfc, 0xf1, 0xfc, 0x05,
    0xfc, 0xfc, 0x01, 0xfa, 0xf6, 0x05, 0xed, 0xfd, 0x00, 0x0d, 0x02, 0x18, 0x00,
    0x05, 0x06, 0x0c, 0xf5, 0xfe, 0x01, 0xf2, 0x09, 0xfe, 0x0d, 0x05, 0x09, 0x0d,
    0xfd, 0xfd, 0x09, 0xf2, 0x08, 0x04, 0x0c, 0x03, 0x06, 0x03, 0x05, 0x04, 0xfe,
    0x08, 0x12, 0xfb, 0x08, 0x03, 0xf5, 0x06, 0x09, 0x07, 0xfa, 0xfd, 0x00, 0x05,
    0xf5, 0xf9, 0x0c, 0x02, 0xfb, 0xfd, 0x04, 0x03, 0x01, 0xfc, 0x01, 0xf8, 0x06,
    0xf9, 0xff, 0x06, 0xf6, 0xfd, 0xf5, 0xf9, 0xff, 0xfe, 0xed, 0x06, 0xf0, 0x09,
    0xfe, 0xe8, 0xfe, 0x05, 0xf1, 0x03, 0xfd, 0x09, 0x03, 0xee, 0x06, 0xfc, 0xdd,
    0xec, 0x0d, 0x14, 0xfd, 0xeb, 0xf2, 0x08, 0xd7, 0xfe, 0x08, 0xfa, 0xf9, 0xf9,
    0xf6, 0x1d, 0x0a, 0xf4, 0x05, 0xf7, 0x06, 0x04, 0x00, 0xf8, 0x0b, 0x08, 0xf5,
    0x09, 0xf4, 0xfe, 0xff, 0x0a, 0xfd, 0xf5, 0x01, 0x11, 0x06, 0x07, 0xf6, 0xe6,
    0x17, 0xfe, 0xf2, 0xf3, 0xfe, 0xfc, 0xfd, 0x0e, 0xfd, 0x03, 0x03, 0xef, 0x04,
    0x0a, 0x01, 0xf0, 0xd8, 0xf3, 0x02, 0x09, 0x0b, 0xfc, 0xf9, 0x09, 0xed, 0xf7,
    0x00, 0xef, 0xfe, 0x07, 0x08, 0xf9, 0xf7, 0x15, 0xf5, 0x01, 0xd7, 0x09, 0xf4,
    0xfe, 0xf7, 0xd0, 0xf8, 0xf2, 0xfe, 0x06, 0x03, 0x02, 0xff, 0x03, 0xf9, 0x03,
    0x03, 0x02, 0x1a, 0x02, 0x12, 0xf0, 0x08, 0x01, 0x06, 0xf9, 0x05, 0xf5, 0xf5,
    0x10, 0xff, 0xff, 0xff, 0x01, 0xff, 0x03, 0x01, 0x01, 0x05, 0x02, 0x0a, 0x0a,
    0x04, 0x00, 0x0b, 0xfa, 0x05, 0x02, 0xf2, 0xef, 0xf5, 0x05, 0xfe, 0xff, 0xf3,
    0xdb, 0xfe, 0x0b, 0x0c, 0x06, 0x0e, 0x09, 0xfd, 0x06, 0xfd, 0xfa, 0xf8, 0x00,
    0x06, 0x04, 0x04, 0xff, 0x02, 0x09, 0x03, 0x06, 0xfc, 0x0d, 0x0a, 0x00, 0xf5,
    0xfb, 0x00, 0x09, 0xff, 0xfe, 0x09, 0xf8, 0xfb, 0xff, 0xf7, 0x04, 0x06, 0x01,
    0xf8, 0x07, 0xfc, 0xee, 0xfe, 0xfc, 0x0b, 0x11, 0xf0, 0x03, 0x02, 0x04, 0xe8,
    0x0f, 0xff, 0xfb, 0xfd, 0x03, 0x01, 0x02, 0x09, 0xfe, 0x0e, 0x07, 0xf7, 0xfe,
    0xf3, 0x05, 0x07, 0xe7, 0xf5, 0x0a, 0xf9, 0x08, 0xfd, 0x02, 0x02, 0x03, 0x0f,
    0xf9, 0x08, 0xf9, 0xf5, 0x07, 0xf7, 0xfe, 0x0c, 0xf4, 0xfb, 0xfc, 0xfb, 0x08,
    0xf8, 0x06, 0x0b, 0x17, 0xf4, 0xf8, 0x08, 0xff, 0xff, 0x00, 0x00, 0x00, 0x00,
    0xfc, 0x07, 0x02, 0xf4, 0xf9, 0x01, 0xfe, 0x05, 0xfe, 0x07, 0x17, 0xfd, 0xfe,
    0x05, 0x04, 0x0b, 0xfd, 0x0c, 0xf3, 0xff, 0x01, 0x02, 0xef, 0xf5, 0xfc, 0xfc,
    0xf5, 0xf6, 0xfc, 0xf6, 0xfe, 0x02, 0xe9, 0xf0, 0xe5, 0x02, 0x0e, 0x10, 0xf9,
    0x09, 0xdc, 0xf8, 0xef, 0x0b, 0xe4, 0x01, 0xfd, 0x04, 0x08, 0xff, 0x02, 0x05,
    0x02, 0x00, 0x07, 0xff, 0xfd, 0x07, 0xfc, 0xf9, 0xf1, 0x02, 0xfa, 0xf4, 0x00,
    0x08, 0x03, 0x02, 0x05, 0xf3, 0x23, 0x04, 0xfa, 0x16, 0x11, 0x00, 0x00, 0xfc,
    0xf3, 0x02, 0x03, 0xf5, 0xe4, 0xfd, 0xf9, 0xff, 0xff, 0xdb, 0x02, 0x03, 0x09,
    0x03, 0xfe, 0x09, 0xf6, 0xf4, 0x01, 0xf6, 0xf9, 0xf3, 0xff, 0x08, 0x08, 0x05,
    0x0c, 0x07, 0xf0, 0x10, 0xf1, 0x04, 0xf2, 0xfc, 0x00, 0x01, 0xff, 0x0e, 0x04,
    0x08, 0x04, 0x0c, 0x02, 0xe7, 0xda, 0xfe, 0x07, 0xf7, 0x01, 0xfb, 0xfd, 0x02,
    0x02, 0xfb, 0x01, 0xfd, 0x03, 0xec, 0xf9, 0x0a, 0x0b, 0xf0, 0xfd, 0xfd, 0xe6,
    0x0a, 0x08, 0x03, 0xe9, 0xff, 0x11, 0xfe, 0xe6, 0xff, 0x12, 0xfc, 0x00, 0xfb,
    0x05, 0xfb, 0xf5, 0x08, 0xf4, 0xf6, 0xf3, 0x01, 0xeb, 0x04, 0x00, 0xff, 0xf2,
    0xf9, 0xfc, 0x02, 0xf2, 0xf8, 0xfc, 0x00, 0x0a, 0x19, 0x01, 0xf9, 0x09, 0xfe,
    0xff, 0xf9, 0x07, 0xfe, 0xf9, 0x0b, 0x00, 0x1a, 0xf2, 0xfa, 0x04, 0xf6, 0x05,
    0xff, 0xff, 0x09, 0xfb, 0xff, 0xeb, 0xfd, 0x04, 0x05, 0xf9, 0xf7, 0xf5, 0x05,
    0xf6, 0xf3, 0x0e, 0x0e, 0x05, 0xfe, 0xfd, 0x0c, 0xf8, 0xff, 0xfd, 0xf1, 0xf9,
    0xff, 0x0d, 0xf4, 0x0d, 0xf3, 0x0b, 0x00, 0x04, 0xfd, 0xfe, 0x09, 0xf9, 0x00,
    0xfe, 0xf3, 0x02, 0xfa, 0xfd, 0xf5, 0x07, 0x0c, 0xfc, 0x16, 0x06, 0x08, 0x04,
    0xf5, 0x00, 0x02, 0xf2, 0xf4, 0x08, 0xea, 0x0b, 0x09, 0xfc, 0xf2, 0x08, 0xfc,
    0xf9, 0xff, 0xfb, 0x05, 0xfd, 0xe4, 0xf4, 0xfa, 0x0e, 0xff, 0xfc, 0xc6, 0x08,
    0xf9, 0xef, 0x08, 0x07, 0x0a, 0xfb, 0xf7, 0x03, 0x04, 0xf9, 0x06, 0xfb, 0xfc,
    0x05, 0x07, 0x0f, 0x04, 0x06, 0x00, 0xf6, 0x07, 0xe7, 0x00, 0xe1, 0xd9, 0x01,
    0x00, 0xf6, 0x0e, 0xfd, 0xf7, 0xfd, 0xf4, 0x01, 0x04, 0x07, 0xfb, 0xf6, 0xfe,
    0x05, 0x02, 0x12, 0xf9, 0xfa, 0xf8, 0x04, 0x0c, 0x0a, 0x01, 0xfa, 0xf6, 0xfb,
    0xc3, 0x02, 0xf6, 0xfd, 0x23, 0xe6, 0xf7, 0xfd, 0x05, 0xfe, 0xfa, 0x08, 0xef,
    0x0a, 0x03, 0xfb, 0x0e, 0xf9, 0xfa, 0xfe, 0xfc, 0xf3, 0x04, 0xee, 0x02, 0xf7,
    0xfd, 0x04, 0x0a, 0xfd, 0x01, 0xef, 0x03, 0xff, 0x01, 0xf8, 0x03, 0xfc, 0x04,
    0x08, 0xfc, 0x06, 0x0a, 0x02, 0xfd, 0x0a, 0x03, 0xf8, 0x13, 0xfd, 0x04, 0xf9,
    0xf0, 0xfc, 0xeb, 0xf6, 0x09, 0x03, 0xee, 0x02, 0xff, 0xf4, 0x15, 0xfa, 0x01,
    0x03, 0xf3, 0xee, 0x16, 0x11, 0x04, 0x07, 0x05, 0xf2, 0xfd, 0x00, 0xf6, 0x10,
    0x07, 0x03, 0xfb, 0xf9, 0x0c, 0xff, 0xfe, 0x0b, 0xf9, 0x0a, 0x07, 0xf7, 0xf3,
    0x03, 0x0a, 0xfc, 0xf5, 0xff, 0x02, 0x16, 0x05, 0xf9, 0x05, 0xfc, 0xea, 0xfe,
    0x03, 0x04, 0x01, 0x03, 0x0b, 0xf7, 0x00, 0xff, 0x05, 0xfa, 0xf3, 0xfa, 0x00,
    0x02, 0xff, 0xfd, 0x19, 0xfe, 0xf8, 0xfb, 0x01, 0x0d, 0xfd, 0x08, 0xfc, 0xe9,
    0x06, 0x06, 0xfb, 0x11, 0x17, 0xfc, 0xff, 0xf1, 0x02, 0xf7, 0xf8, 0x06, 0xfb,
    0x0b, 0xfe, 0x05, 0x04, 0xe1, 0x0c, 0xf9, 0xfb, 0x04, 0x09, 0x03, 0x06, 0xfa,
    0xff, 0x01, 0x01, 0xfe, 0x02, 0x01, 0x00, 0xfe, 0xf5, 0x01, 0x06, 0x0b, 0xf7,
    0x05, 0xeb, 0x0d, 0x00, 0x00, 0x0f, 0x06, 0x0f, 0x09, 0xdf, 0xf2, 0x03, 0xd7,
    0xfe, 0xfb, 0x01, 0x15, 0x00, 0x0a, 0xe5, 0x07, 0xf8, 0x0a, 0x03, 0xfe, 0xfb,
    0xf8, 0xf6, 0x03, 0xfe, 0x02, 0x04, 0x03, 0xfa, 0xff, 0xe6, 0xf2, 0x04, 0x07,
    0xf3, 0xef, 0x05, 0x0a, 0xfa, 0xdc, 0x00, 0x0c, 0xf2, 0x00, 0xf8, 0xfd, 0x00,
    0x03, 0x0e, 0xfc, 0xf7, 0x09, 0x03, 0xfd, 0xfc, 0x0e, 0x00, 0x00, 0xf7, 0xf8,
    0x0d, 0xfc, 0xfd, 0xfc, 0xfe, 0x02, 0x0e, 0x05, 0xfc, 0x05, 0xe6, 0x0c, 0xfb,
    0x08, 0xf6, 0x04, 0x06, 0x06, 0x11, 0x02, 0x05, 0x01, 0x10, 0x0d, 0xfd, 0xff,
    0x08, 0x02, 0x06, 0x00, 0x0e, 0xfb, 0x03, 0x02, 0xf9, 0xf1, 0x08, 0x00, 0x02,
    0x0a, 0x01, 0x0c, 0xfb, 0x00, 0x00, 0xf4, 0x05, 0x00, 0xfd, 0x0e, 0x0e, 0x0b,
    0xfd, 0xf7, 0x06, 0xf7, 0xf5, 0xf1, 0x07, 0x0c, 0x00, 0xf5, 0xed, 0xf1, 0xf6,
    0xe5, 0x04, 0x0d, 0xf7, 0x02, 0xec, 0xfe, 0xfd, 0x02, 0x0d, 0xfe, 0x04, 0x02,
    0xfa, 0xf1, 0xf9, 0xf5, 0xf8, 0x06, 0x02, 0xf3, 0x05, 0x01, 0x03, 0xf7, 0x03,
    0xd7, 0xfc, 0x07, 0x07, 0x05, 0xfb, 0x03, 0x01, 0xf7, 0xed, 0xed, 0x02, 0xf8,
    0xfc, 0xfa, 0x03, 0x00, 0x02, 0x09, 0x0d, 0xfe, 0xfd, 0x05, 0x0a, 0x0b, 0x00,
    0x08, 0xff, 0xf5, 0xfb, 0x07, 0xee, 0xf9, 0x05, 0xfd, 0xfd, 0x01, 0xff, 0xed,
    0xfe, 0x03, 0xfd, 0x06, 0xfe, 0xf9, 0x00, 0x03, 0x04, 0x04, 0xfa, 0x06, 0x0b,
    0xfc, 0xfb, 0x05, 0xfd, 0xfd, 0x05, 0x06, 0xff, 0xf6, 0xee, 0xf3, 0xf9, 0xf7,
    0xee, 0x0c, 0xfc, 0x03, 0xfa, 0x05, 0xf7, 0xf4, 0x0b, 0xfb, 0xed, 0x06, 0xf1,
    0x07, 0xf4, 0xfa, 0x03, 0x01, 0xf8, 0x02, 0x08, 0x05, 0x07, 0xf6, 0x05, 0xee,
    0x0a, 0x00, 0xfd, 0xf8, 0x05, 0x01, 0xf2, 0xec, 0x08, 0xf7, 0xfa, 0x03, 0xf4,
    0xfe, 0x09, 0x0d, 0x0b, 0x11, 0x05, 0xfb, 0xfd, 0x04, 0x07, 0xf1, 0x01, 0x09,
    0x09, 0xf3, 0x06, 0xf5, 0xff, 0x0a, 0xf2, 0xfc, 0xee, 0x08, 0x07, 0x05, 0x02,
    0xf5, 0xf9, 0x0e, 0x01, 0x03, 0xf7, 0xfd, 0x08, 0x06, 0xf6, 0x0c, 0xfa, 0xfe,
    0xfd, 0x03, 0xff, 0xe4, 0xf5, 0xfd, 0xfa, 0x0c, 0x0f, 0xed, 0xf1, 0x0f, 0x03,
    0x07, 0x03, 0xf2, 0x03, 0xf5, 0x01, 0xff, 0xfb, 0xf5, 0xff, 0x04, 0x0c, 0xfa,
    0x09, 0xf7, 0x0a, 0xfd, 0xff, 0xfa, 0xda, 0x02, 0x07, 0x02, 0xfb, 0xfc, 0x0d,
    0x01, 0xfb, 0x05, 0x05, 0xf2, 0x08, 0xfe, 0x03, 0xfe, 0x07, 0x08, 0xfc, 0xfa,
    0x05, 0xfe, 0x08, 0x18, 0xf2, 0xff, 0x00, 0x05, 0x00, 0x01, 0xfe, 0x06, 0xff,
    0x02, 0x02, 0x03, 0x03, 0x09, 0xf1, 0xfa, 0x05, 0xf9, 0xfa, 0x03, 0xf8, 0xfe,
    0xfc, 0x03, 0x0a, 0xfd, 0x02, 0x09, 0xfb, 0x04, 0xfd, 0x07, 0x07, 0xf9, 0x13,
    0xe5, 0xe7, 0xfa, 0x0d, 0x01, 0x0b, 0x07, 0xfc, 0x06, 0x04, 0xd4, 0xfd, 0x06,
    0x04, 0x06, 0xf3, 0x00, 0x00, 0x01, 0x09, 0xf8, 0xff, 0x0e, 0x05, 0xfc, 0x02,
    0xfc, 0xf6, 0x01, 0xfc, 0xed, 0x09, 0x07, 0xf2, 0xff, 0x12, 0x0a, 0xfa, 0xfb,
    0xf4, 0x0e, 0xfd, 0x01, 0xff, 0x09, 0xf9, 0x08, 0xfe, 0x01, 0x03, 0x0a, 0xfe,
    0xe9, 0xf7, 0x04, 0xf5, 0xf5, 0xf9, 0x02, 0xfa, 0x03, 0xee, 0xfc, 0x0b, 0x00,
    0x03, 0x07, 0xf9, 0xec, 0xfe, 0x06, 0x02, 0xf3, 0x0d, 0x08, 0x00, 0x01, 0x17,
    0x03, 0xf6, 0xf9, 0x0a, 0x19, 0x03, 0xfd, 0x04, 0x0d, 0xf7, 0xfc, 0x12, 0x04,
    0x0d, 0xf8, 0xdd, 0xec, 0x00, 0xfa, 0xf4, 0x01, 0xf4, 0x07, 0x01, 0x01, 0x12,
    0xf7, 0x07, 0x11, 0x01, 0xfd, 0x0d, 0xf6, 0xfb, 0xf5, 0x04, 0xff, 0x04, 0xfd,
    0x04, 0x09, 0x01, 0xfb, 0xe8, 0xff, 0xee, 0xf3, 0xee, 0xfb, 0x05, 0x03, 0x05,
    0x00, 0xf4, 0xfc, 0x04, 0xf8, 0x0d, 0x06, 0xf2, 0x0d, 0xfa, 0x02, 0xf9, 0x00,
    0x05, 0x04, 0x03, 0xfa, 0x00, 0xfe, 0x01, 0x02, 0x08, 0xdd, 0x03, 0x08, 0xf7,
    0x07, 0xfe, 0xea, 0xfe, 0x00, 0x01, 0x07, 0xf9, 0x0e, 0xe7, 0xff, 0xf0, 0xfe,
    0xff, 0xe0, 0xf6, 0xf9, 0x05, 0xf6, 0xf0, 0xfe, 0x05, 0x11, 0x07, 0xfe, 0x00,
    0x02, 0xfc, 0x08, 0xf4, 0x07, 0xf6, 0x0d, 0x10, 0x04, 0x01, 0x07, 0x04, 0x0f,
    0xf2, 0x06, 0x02, 0x04, 0xf9, 0x00, 0x0a, 0xe4, 0xfc, 0xff, 0xfa, 0xf9, 0xf5,
    0x0a, 0x02, 0x0b, 0x05, 0xf8, 0xeb, 0xe6, 0xfb, 0x13, 0x15, 0x1a, 0x00, 0x00,
    0xfb, 0xf5, 0x05, 0xfe, 0x12, 0x00, 0xee, 0x05, 0x05, 0xfb, 0x00, 0xf6, 0x05,
    0x24, 0x07, 0xea, 0xfc, 0xf3, 0xf4, 0x02, 0xe6, 0xf1, 0xf8, 0x02, 0xfa, 0x0b,
    0x05, 0x09, 0xe8, 0x02, 0x07, 0xff, 0xfb, 0xe8, 0x1e, 0xf9, 0x0e, 0x25, 0x01,
    0x02, 0x07, 0xf7, 0x03, 0x0e, 0x01, 0x00, 0xf1, 0x0c, 0x06, 0x04, 0xfa, 0x03,
    0x0a, 0x00, 0xfb, 0x07, 0xdd, 0xdf, 0x00, 0xf1, 0x06, 0xf9, 0x07, 0xf5, 0x06,
    0x13, 0xed, 0xf9, 0x04, 0xe8, 0xff, 0x02, 0x0a, 0x09, 0xf9, 0xfa, 0x03, 0x01,
    0x00, 0x02, 0x03, 0xfe, 0xf9, 0x16, 0x00, 0x15, 0x03, 0xf7, 0xf3, 0xfc, 0xfe,
    0xfc, 0xfa, 0x0d, 0xfb, 0xd1, 0xf9, 0x06, 0x0a, 0x03, 0xf2, 0xfa, 0x01, 0xe4,
    0x04, 0xf8, 0xf4, 0x0e, 0xe8, 0x04, 0x08, 0x04, 0xfa, 0xfa, 0x04, 0xf6, 0x08,
    0xcf, 0x08, 0xea, 0x0f, 0x05, 0xf5, 0x06, 0xfb, 0x0f, 0x05, 0x02, 0x02, 0xf4,
    0x05, 0x00, 0xf3, 0x01, 0xf0, 0xff, 0xba, 0xf9, 0x16, 0xf6, 0x00, 0x0e, 0xf6,
    0x01, 0xf4, 0xff, 0x04, 0x02, 0xfb, 0xfd, 0x00, 0xff, 0x0d, 0x00, 0xf5, 0xea,
    0xbb, 0xe4, 0xe2, 0xfd, 0xf1, 0x01, 0x01, 0xfe, 0x09, 0x13, 0xfc, 0x0e, 0x0c,
    0x00, 0xf4, 0x0b, 0xf5, 0x08, 0x03, 0xee, 0x18, 0x04, 0xdf, 0x03, 0x06, 0xec,
    0xfd, 0x00, 0x00, 0x0b, 0x03, 0x0a, 0x07, 0xff, 0x05, 0xea, 0xe3, 0xff, 0x0f,
    0xff, 0x02, 0xfc, 0xfe, 0xfa, 0xff, 0x01, 0xf7, 0xff, 0x00, 0x08, 0x00, 0xfc,
    0xfe, 0x02, 0x00, 0x0a, 0x03, 0xe9, 0xe7, 0x06, 0x0b, 0x13, 0xed, 0xf6, 0xff,
    0x02, 0xfb, 0x02, 0x00, 0x04, 0xf6, 0x05, 0x07, 0x0b, 0xfe, 0x12, 0x04, 0xdb,
    0xf7, 0x06, 0xfb, 0xfc, 0xfd, 0x03, 0xf0, 0xfe, 0x06, 0x13, 0xea, 0xfd, 0x04,
    0xff, 0xf8, 0xf8, 0xf2, 0x08, 0x04, 0xf0, 0x03, 0x02, 0x09, 0x02, 0x07, 0xfb,
    0xff, 0xf1, 0xfc, 0x03, 0x11, 0x0e, 0xfb, 0xfe, 0xff, 0xf2, 0xec, 0x03, 0x00,
    0xf9, 0x07, 0xfe, 0x00, 0x04, 0xfb, 0xf8, 0x08, 0x10, 0x03, 0xf9, 0xf4, 0x02,
    0xf2, 0xf7, 0x0e, 0x08, 0x04, 0xfd, 0x05, 0xf7, 0x02, 0xf8, 0xf0, 0xf5, 0x00,
    0xfb, 0xd9, 0x09, 0x10, 0x0d, 0x02, 0xf1, 0x05, 0x01, 0x05, 0x09, 0x11, 0xfc,
    0x14, 0x05, 0x0b, 0xff, 0x01, 0x0a, 0xfe, 0xe1, 0x05, 0xe6, 0x02, 0x00, 0x01,
    0x01, 0x0b, 0x00, 0x03, 0xfc, 0x05, 0xfc, 0x02, 0x0c, 0xfb, 0x05, 0x09, 0xfa,
    0x01, 0xfa, 0x02, 0x0e, 0xee, 0xfc, 0x02, 0x03, 0x00, 0xf7, 0xf8, 0xff, 0xe6,
    0xfb, 0xfb, 0x03, 0xf6, 0xfa, 0xff, 0x07, 0xfb, 0xfc, 0x01, 0xf7, 0x00, 0xf6,
    0xce, 0x08, 0xfb, 0x00, 0xf8, 0x06, 0xf8, 0x08, 0xef, 0x18, 0x0d, 0x11, 0x05,
    0xf5, 0x07, 0x01, 0x06, 0xfe, 0xff, 0x06, 0x11, 0xff, 0x01, 0x01, 0xfb, 0xfe,
    0xfc, 0x1f, 0x01, 0x03, 0x04, 0xfd, 0x13, 0x02, 0xfa, 0x07, 0x06, 0x00, 0xf5,
    0x06, 0xfa, 0x08, 0xff, 0xfb, 0x03, 0x01, 0x06, 0xfb, 0x05, 0x03, 0xfa, 0x05,
    0xfb, 0xf9, 0xf6, 0xf0, 0xfb, 0x07, 0x08, 0xf1, 0x03, 0x0f, 0xf9, 0xf9, 0xf7,
    0xfc, 0xfb, 0x0f, 0x0d, 0xf4, 0xf5, 0xfd, 0xfe, 0x01, 0x13, 0x06, 0xe8, 0x0c,
    0x05, 0xfd, 0xff, 0xed, 0x03, 0xf2, 0x12, 0xfb, 0x0e, 0x03, 0xe7, 0xf6, 0x0e,
    0x10, 0x02, 0xed, 0x06, 0x02, 0xfe, 0xfa, 0x07, 0x02, 0xe5, 0xf3, 0x19, 0xf1,
    0x00, 0xe3, 0xf6, 0xff, 0xfc, 0xfd, 0xf3, 0xeb, 0x01, 0x07, 0x04, 0xf8, 0x0d,
    0xef, 0x01, 0x05, 0xff, 0x01, 0xf9, 0x02, 0xfb, 0xf8, 0xee, 0x00, 0xfe, 0x07,
    0x0e, 0xf7, 0xfb, 0x00, 0x01, 0xa6, 0x07, 0xf4, 0x07, 0xeb, 0x07, 0x13, 0x01,
    0x0b, 0x11, 0x06, 0x0a, 0xfd, 0x03, 0x06, 0x04, 0xf9, 0x08, 0xfd, 0x0b, 0xff,
    0x03, 0xf7, 0xeb, 0xfb, 0xf9, 0xf3, 0xf5, 0x05, 0xfa, 0x07, 0xfd, 0x02, 0xfc,
    0xde, 0xeb, 0xf6, 0x0d, 0x03, 0x03, 0xff, 0xfe, 0x01, 0x03, 0x00, 0xff, 0x06,
    0x10, 0xff, 0x06, 0x03, 0x00, 0x04, 0x02, 0xf8, 0xfb, 0x11, 0x0a, 0x01, 0xf2,
    0x05, 0x11, 0xfa, 0xf5, 0xe9, 0xf3, 0x06, 0xff, 0xfa, 0x0e, 0x20, 0x0d, 0x06,
    0xf5, 0x03, 0x00, 0xfe, 0xff, 0xf5, 0xff, 0x08, 0x03, 0xff, 0xf5, 0xf6, 0xf9,
    0xff, 0xf8, 0x10, 0xfc, 0xfd, 0xf1, 0x04, 0x09, 0x00, 0x06, 0x01, 0x09, 0x09,
    0x09, 0x03, 0xf5, 0xff, 0xf8, 0x0d, 0xfc, 0xf7, 0x08, 0x09, 0x02, 0x08, 0x01,
    0x08, 0xfe, 0x0a, 0xea, 0x15, 0x0a, 0x05, 0xfa, 0x02, 0x05, 0xfb, 0xfd, 0xfd,
    0x08, 0xff, 0x0f, 0xf9, 0x05, 0x0e, 0x02, 0x01, 0x09, 0x1c, 0x0b, 0xed, 0x03,
    0x01, 0xf3, 0xfa, 0xf4, 0x04, 0xec, 0xfd, 0x08, 0x03, 0xff, 0xfd, 0x05, 0xfe,
    0xfe, 0x06, 0xff, 0x03, 0x02, 0x00, 0x04, 0xf5, 0xfe, 0xf9, 0x02, 0xf0, 0xfa,
    0x03, 0xf3, 0x0a, 0xf5, 0x04, 0xf1, 0x02, 0x00, 0x11, 0x0b, 0xfd, 0x11, 0x00,
    0x04, 0xfe, 0x0a, 0xfa, 0x03, 0xee, 0xfc, 0xfd, 0xf5, 0x06, 0xf8, 0x08, 0xfc,
    0x02, 0xfa, 0x06, 0x01, 0x00, 0xf6, 0xf2, 0xf5, 0xf9, 0x14, 0xec, 0xfb, 0xef,
    0xfa, 0x00, 0x06, 0x09, 0xf4, 0xec, 0x0a, 0xff, 0xe6, 0xef, 0xf5, 0xfe, 0x02,
    0x04, 0x0b, 0x05, 0xfb, 0x00, 0xf8, 0x0f, 0xd5, 0xed, 0xf6, 0xf7, 0x02, 0xf6,
    0xda, 0xe4, 0xfe, 0x10, 0xf7, 0x07, 0xdf, 0xf9, 0x03, 0x04, 0xff, 0xd7, 0xf9,
    0x01, 0x05, 0xec, 0x0c, 0x0d, 0xe2, 0x00, 0xf3, 0x04, 0xf1, 0x05, 0xd8, 0x0c,
    0xde, 0x02, 0x03, 0x0f, 0x00, 0xfb, 0x06, 0x06, 0x01, 0xfc, 0x05, 0x05, 0xfe,
    0x06, 0xff, 0xf2, 0xfc, 0xad, 0xe5, 0xfe, 0xf8, 0x0c, 0xfd, 0xf6, 0xf3, 0x06,
    0x03, 0x21, 0xd4, 0xf5, 0x02, 0x07, 0xea, 0xff, 0x01, 0x01, 0xdc, 0x09, 0x05,
    0x07, 0xf6, 0xff, 0xee, 0x03, 0x06, 0xf9, 0x0c, 0xf3, 0xe9, 0xf1, 0xf2, 0x05,
    0xff, 0xf1, 0x04, 0xce, 0xfb, 0x09, 0x01, 0xf5, 0x12, 0xc3, 0x08, 0x07, 0xef,
    0xff, 0xd8, 0x0a, 0xf0, 0xfe, 0x22, 0xf7, 0x01, 0xf8, 0xe7, 0xfd, 0x05, 0x03,
    0xef, 0xf2, 0xf4, 0xf4, 0x01, 0xf8, 0xf1, 0xf2, 0xff, 0xfb, 0x07, 0xf8, 0x08,
    0xfe, 0xfe, 0x04, 0xfc, 0xf7, 0xdc, 0x06, 0x02, 0xff, 0xfb, 0xf6, 0xe1, 0x09,
    0xf6, 0xf9, 0xed, 0x0e, 0x02, 0xf9, 0x06, 0x0a, 0xfe, 0x0c, 0x02, 0x0b, 0xef,
    0x0b, 0x00, 0xff, 0x10, 0x06, 0x00, 0x0b, 0xf8, 0x0b, 0xf9, 0x02, 0x0a, 0xf8,
    0x02, 0xe5, 0xf8, 0x05, 0xfc, 0x19, 0x01, 0x0c, 0xed, 0x00, 0xf3, 0xfa, 0xf1,
    0x04, 0x06, 0x03, 0x0b, 0x00, 0x14, 0x06, 0xf8, 0x09, 0x01, 0x09, 0xff, 0xfd,
    0x06, 0x09, 0x04, 0x05, 0xea, 0x00, 0x0d, 0x0c, 0xff, 0xee, 0xe7, 0xff, 0xfd,
    0x03, 0x02, 0x01, 0xff, 0x04, 0xfd, 0xec, 0x0b, 0x0a, 0xef, 0x09, 0xea, 0x02,
    0x07, 0x00, 0x08, 0xed, 0x13, 0xec, 0x03, 0x03, 0x09, 0x01, 0xdb, 0xf2, 0x07,
    0xf6, 0xeb, 0x0e, 0xff, 0xe3, 0xf0, 0xfc, 0x06, 0x04, 0xfc, 0xf2, 0x04, 0xf6,
    0x06, 0xee, 0xe8, 0xe8, 0xdd, 0xeb, 0xf8, 0xef, 0xfa, 0xf9, 0xff, 0xff, 0x00,
    0x04, 0x05, 0xe8, 0xea, 0x02, 0x15, 0xce, 0xfa, 0xf7, 0xc0, 0x07, 0x00, 0x0a,
    0x08, 0xf5, 0xf7, 0xfd, 0xfd, 0xf5, 0x01, 0xfe, 0x04, 0x00, 0xf8, 0xea, 0xf7,
    0x01, 0x01, 0x04, 0x07, 0x00, 0x00, 0xff, 0xfb, 0x23, 0x0e, 0x30, 0xfa, 0x06,
    0x05, 0x07, 0x16, 0x06, 0xfb, 0x02, 0xfb, 0x08, 0x07, 0xfa, 0xed, 0xfd, 0x05,
    0x05, 0x07, 0xf7, 0x0b, 0x07, 0x0b, 0xef, 0xe9, 0xfc, 0x01, 0x00, 0x02, 0xfe,
    0x06, 0x02, 0xe0, 0x09, 0x0e, 0xf6, 0xfe, 0x03, 0x00, 0x04, 0x06, 0xfb, 0x0b,
    0x01, 0xe7, 0xfb, 0x09, 0xf9, 0xf5, 0xd1, 0xf4, 0xff, 0xfc, 0xf8, 0xf9, 0xed,
    0xff, 0x0e, 0xff, 0xe0, 0x0b, 0x16, 0x0e, 0xf0, 0xfc, 0xe1, 0xfd, 0xfc, 0x09,
    0x02, 0x20, 0xf8, 0xf4, 0x17, 0x00, 0x07, 0x02, 0x00, 0xf1, 0x03, 0x11, 0x04,
    0x04, 0xf8, 0x27, 0x0b, 0xc9, 0x04, 0xfb, 0x01, 0x06, 0xf8, 0x00, 0x0a, 0x0a,
    0xf5, 0x03, 0xf0, 0x0d, 0xd9, 0x06, 0xfd, 0x05, 0xfd, 0xf9, 0x0a, 0xf2, 0x0c,
    0x09, 0xfd, 0x06, 0x05, 0xe4, 0xf6, 0xf4, 0xfd, 0xfa, 0xed, 0xfd, 0xf7, 0x01,
    0xf7, 0xf6, 0xfc, 0xfe, 0xfb, 0x04, 0xe6, 0xf6, 0x07, 0x07, 0x00, 0xfd, 0xe4,
    0x0f, 0x17, 0x13, 0x07, 0xfc, 0xe3, 0xf8, 0xcf, 0x06, 0xff, 0xf2, 0xff, 0xfc,
    0x0a, 0x01, 0xfe, 0x09, 0xef, 0x01, 0xfc, 0xf8, 0xfa, 0xff, 0xed, 0x08, 0x0c,
    0x01, 0x04, 0x07, 0x05, 0x01, 0xfd, 0xff, 0xfb, 0xf8, 0x02, 0x14, 0x09, 0x08,
    0xfc, 0xfd, 0xe6, 0x1e, 0x00, 0xfb, 0xf3, 0xee, 0x02, 0x00, 0x09, 0xe9, 0xfc,
    0x02, 0xf9, 0xfb, 0x1e, 0x02, 0x08, 0x05, 0xf6, 0x02, 0x04, 0x13, 0xf6, 0x02,
    0x05, 0x03, 0x03, 0xfc, 0x05, 0xfb, 0x0c, 0x0a, 0xfc, 0xff, 0x05, 0x04, 0xfd,
    0x0d, 0xf9, 0xfc, 0x03, 0xfc, 0x09, 0xff, 0x0c, 0x05, 0xfa, 0x03, 0x02, 0xf7,
    0x02, 0xfe, 0xf7, 0x04, 0x01, 0xf6, 0xf6, 0x0f, 0x02, 0xf4, 0xf9, 0xf2, 0xff,
    0x02, 0x02, 0xff, 0xfa, 0xe9, 0xfb, 0x09, 0xfd, 0x03, 0x0a, 0xfd, 0xf9, 0x06,
    0x07, 0xea, 0xf3, 0xee, 0x08, 0xfc, 0xfd, 0x0a, 0xd8, 0x0a, 0xe9, 0x0d, 0xe9,
    0x07, 0xee, 0x12, 0xd9, 0x02, 0x06, 0xe5, 0xfa, 0x01, 0xff, 0xab, 0xfb, 0xec,
    0x02, 0x00, 0x03, 0xef, 0xfd, 0x09, 0x13, 0xff, 0x00, 0x0f, 0xe2, 0x03, 0xf4,
    0xf6, 0x07, 0xee, 0xfb, 0xfc, 0x01, 0x02, 0x01, 0xf3, 0xfa, 0xff, 0x09, 0xf0,
    0xfd, 0xd7, 0x06, 0xf4, 0xfb, 0xfe, 0x06, 0x05, 0x03, 0xfc, 0x08, 0x00, 0x08,
    0xf2, 0x0f, 0xfe, 0xf7, 0xf0, 0x08, 0x0c, 0xfb, 0xdd, 0xfa, 0x01, 0xe9, 0xf6,
    0xfb, 0x06, 0x00, 0x0a, 0xf9, 0xeb, 0x00, 0x03, 0x06, 0x09, 0xff, 0xfd, 0xfe,
    0x03, 0xff, 0xf9, 0x01, 0x01, 0xfc, 0xfe, 0x00, 0x00, 0xdc, 0x08, 0x11, 0x00,
    0x01, 0x01, 0xfd, 0xeb, 0xe8, 0xf6, 0xf9, 0xd3, 0x03, 0x0d, 0xff, 0x02, 0xf9,
    0x06, 0x0b, 0xfb, 0x06, 0xfe, 0xf0, 0xf1, 0xf7, 0x0c, 0xfc, 0x0b, 0x0e, 0xfa,
    0x02, 0x13, 0x0c, 0x07, 0xed, 0x07, 0xdb, 0xf1, 0xec, 0xfb, 0xe3, 0xf9, 0xfe,
    0xfc, 0x02, 0x0a, 0x02, 0x02, 0x02, 0x04, 0xfb, 0x12, 0x07, 0xf0, 0xfe, 0x06,
    0x0b, 0x10, 0xfb, 0xea, 0x25, 0xf7, 0x05, 0x03, 0x0e, 0x02, 0xfc, 0xf4, 0xf6,
    0x04, 0x09, 0x0a, 0xfe, 0xdf, 0x01, 0x04, 0xe1, 0x03, 0xff, 0xfd, 0x02, 0xfe,
    0xf7, 0xde, 0xfe, 0xf3, 0x00, 0x01, 0xfe, 0xff, 0xff, 0x0d, 0xea, 0xf7, 0x04,
    0x04, 0xfc, 0x10, 0x07, 0x03, 0xfa, 0xff, 0x05, 0x16, 0x15, 0x03, 0xf4, 0x09,
    0xfe, 0x01, 0x05, 0xe8, 0xfd, 0xf4, 0xfe, 0xfd, 0x02, 0xdd, 0x08, 0x07, 0x08,
    0xf7, 0x01, 0x07, 0xd7, 0xfc, 0xfc, 0xff, 0xf9, 0xf0, 0xe5, 0xf2, 0xfe, 0xff,
    0xfa, 0x01, 0xfc, 0xfe, 0x1d, 0xf7, 0x05, 0x07, 0xed, 0x14, 0x0d, 0xfb, 0x0b,
    0xfd, 0x0a, 0xff, 0x09, 0x0b, 0xfb, 0xf6, 0xf6, 0x0f, 0x0b, 0xf7, 0x0a, 0x0a,
    0xf5, 0xf9, 0xf2, 0x0a, 0x19, 0x00, 0xf4, 0xeb, 0x05, 0x0a, 0xf8, 0x0f, 0x02,
    0xf7, 0x0a, 0xf8, 0x08, 0x05, 0xf8, 0x0b, 0x07, 0x04, 0x00, 0xff, 0xf6, 0xff,
    0xfc, 0x01, 0x0e, 0x06, 0x09, 0xfc, 0x07, 0xff, 0x00, 0xef, 0x0a, 0xd8, 0xf9,
    0xf7, 0x03, 0x02, 0xfb, 0xfd, 0xfb, 0xfc, 0x09, 0xfc, 0xf0, 0x0e, 0xf9, 0xfb,
    0x03, 0xfa, 0xee, 0x0b, 0x02, 0xf2, 0x10, 0x07, 0xfe, 0xeb, 0x15, 0x01, 0xff,
    0x03, 0x02, 0x09, 0xfc, 0x0c, 0xdf, 0x17, 0x01, 0x04, 0xfe, 0x05, 0xf6, 0x01,
    0xfa, 0xf8, 0xee, 0x07, 0xff, 0x02, 0xfe, 0xf6, 0x04, 0xf4, 0x0a, 0xfd, 0x00,
    0x0c, 0xf8, 0x01, 0x0a, 0xee, 0x0d, 0xf8, 0x05, 0x01, 0xfc, 0xfe, 0xfa, 0xff,
    0x04, 0x00, 0xf9, 0x00, 0x09, 0x07, 0x01, 0xf8, 0x09, 0x00, 0xfa, 0xfe, 0xfc,
    0x06, 0x0c, 0x11, 0x02, 0xf0, 0x04, 0x0a, 0x07, 0xf8, 0x06, 0xfa, 0xf7, 0xfa,
    0xef, 0x0b, 0xf6, 0xfe, 0x03, 0xf4, 0x10, 0x09, 0x03, 0x00, 0x03, 0x07, 0xfa,
    0xf7, 0x09, 0x05, 0xff, 0xfa, 0xf5, 0x05, 0xf2, 0x07, 0xf4, 0xf1, 0xf8, 0xf5,
    0x02, 0xf4, 0x0a, 0xe9, 0xff, 0x00, 0x02, 0xff, 0x03, 0x02, 0xff, 0x01, 0xff,
    0xfb, 0x07, 0xf1, 0xfe, 0xfa, 0x06, 0x04, 0xf6, 0x03, 0x06, 0x0f, 0x0f, 0xf8,
    0x03, 0x04, 0xee, 0xf2, 0x08, 0xff, 0x13, 0x0a, 0xff, 0x01, 0x03, 0xfe, 0x01,
    0xfe, 0x00, 0x08, 0x0e, 0xef, 0x1c, 0x07, 0xf2, 0xff, 0x02, 0xf8, 0xf9, 0x01,
    0x06, 0x0a, 0xff, 0xfa, 0x06, 0x07, 0xfb, 0x04, 0xfc, 0x08, 0xf0, 0x07, 0xf9,
    0x03, 0x09, 0xfe, 0x01, 0xe1, 0xe4, 0x09, 0x14, 0xf3, 0x01, 0xf9, 0xdb, 0xff,
    0xfa, 0x03, 0x02, 0xf8, 0x00, 0xf8, 0x04, 0x01, 0x01, 0xf6, 0xfc, 0xfe, 0xfd,
    0x07, 0xfb, 0xf9, 0xf8, 0xdf, 0x07, 0xfb, 0x06, 0xfa, 0xf6, 0x01, 0xf6, 0xe4,
    0x14, 0x14, 0xf4, 0xee, 0xf6, 0xf1, 0x11, 0xf7, 0x05, 0xfe, 0x02, 0xed, 0xfc,
    0x05, 0x19, 0xf9, 0xf5, 0xf0, 0x0a, 0xfe, 0xf6, 0xf8, 0x09, 0x0a, 0x0b, 0x01,
    0x01, 0x03, 0x06, 0x08, 0xff, 0xfd, 0xff, 0x05, 0x11, 0x0a, 0x02, 0x00, 0xf5,
    0xee, 0x02, 0x0b, 0xfa, 0x04, 0xfe, 0xfd, 0xf2, 0x04, 0x03, 0x06, 0x06, 0x01,
    0x0e, 0xff, 0xfe, 0x01, 0x06, 0xed, 0x10, 0x0a, 0xfc, 0x0b, 0xfd, 0xf1, 0xfa,
    0xfc, 0xf3, 0xda, 0xf8, 0xe3, 0x0f, 0xf2, 0x0a, 0x0c, 0x02, 0xfd, 0x00, 0xe1,
    0xc0, 0xfc, 0xf3, 0x0a, 0x06, 0x05, 0xfd, 0xf9, 0x03, 0x07, 0xfc, 0xfe, 0x07,
    0x0d, 0x09, 0xfa, 0x00, 0x06, 0xe8, 0xfd, 0xfc, 0x0f, 0x03, 0x08, 0xef, 0x05,
    0xfc, 0x01, 0xcb, 0xe0, 0x05, 0xdf, 0xff, 0x05, 0xe9, 0x0b, 0x05, 0x06, 0xfd,
    0xfc, 0x0f, 0xfb, 0x0a, 0x00, 0x10, 0xfb, 0xf7, 0xf9, 0x17, 0x05, 0x01, 0x00,
    0x06, 0x1f, 0xfb, 0x10, 0xf7, 0xe9, 0x0a, 0xd9, 0x09, 0x09, 0x0a, 0xfb, 0xff,
    0xe8, 0xff, 0x11, 0x09, 0xee, 0xf5, 0xfb, 0x05, 0xf8, 0xef, 0x06, 0xf8, 0x0a,
    0xfc, 0xf8, 0xf0, 0x08, 0x04, 0xf6, 0xf7, 0xf4, 0xf1, 0x14, 0xea, 0x08, 0xf8,
    0xeb, 0x01, 0xe0, 0x0b, 0x04, 0xfc, 0xf9, 0x08, 0x0c, 0x06, 0x07, 0x00, 0xf0,
    0xea, 0x0f, 0x09, 0xfd, 0xf8, 0xf9, 0xf6, 0xff, 0xff, 0xfc, 0x0c, 0x06, 0xfb,
    0xfe, 0xfd, 0xeb, 0x12, 0x02, 0x0a, 0x08, 0x09, 0xeb, 0xed, 0xe1, 0xea, 0xf5,
    0x01, 0xfa, 0xfe, 0xfc, 0x01, 0xff, 0x02, 0x00, 0xfb, 0xe5, 0x09, 0x04, 0xfd,
    0xf4, 0xfd, 0xda, 0x0b, 0x14, 0x06, 0xd2, 0xed, 0xff, 0x18, 0xef, 0xfd, 0xfd,
    0xdf, 0x15, 0xf0, 0xf8, 0xf6, 0x04, 0xfd, 0xff, 0x08, 0xfa, 0x0b, 0x03, 0xfa,
    0x08, 0x08, 0xfd, 0xf5, 0x00, 0x0b, 0xff, 0xfe, 0xfc, 0x04, 0xe8, 0xe6, 0x21,
    0xec, 0x1c, 0x0e, 0x11, 0xff, 0xfa, 0x07, 0xfe, 0xf5, 0x08, 0x09, 0xff, 0x07,
    0x03, 0x09, 0xfc, 0xff, 0x09, 0xec, 0xe9, 0x13, 0xe0, 0x05, 0x02, 0xef, 0x08,
    0xfe, 0xfd, 0x04, 0x04, 0xef, 0xfb, 0xee, 0xdb, 0xde, 0x01, 0xe3, 0xf4, 0xfc,
    0xf7, 0xfe, 0xf0, 0xfc, 0xfc, 0x17, 0x08, 0x00, 0xff, 0xf9, 0xeb, 0x0d, 0x0a,
    0xf6, 0xf3, 0x1d, 0x03, 0x01, 0xf4, 0xf0, 0xfb, 0xe6, 0xff, 0x03, 0xed, 0xdc,
    0x07, 0x0b, 0xfd, 0x00, 0xf8, 0x81, 0x02, 0xfc, 0xf7, 0x06, 0x09, 0x03, 0xf9,
    0x02, 0xfc, 0x0b, 0xf4, 0x0b, 0x0b, 0x03, 0x08, 0x05, 0x08, 0x00, 0xf9, 0xfe,
    0x00, 0x05, 0xba, 0x11, 0xfb, 0xfe, 0x01, 0xff, 0x09, 0x07, 0xeb, 0x05, 0xfb,
    0xf6, 0xf8, 0xf8, 0xf6, 0x0f, 0xfb, 0xf7, 0x0e, 0xd4, 0x05, 0x02, 0xf6, 0xfd,
    0xfb, 0xec, 0x0c, 0x0b, 0xf9, 0xff, 0xdf, 0x08, 0xf3, 0x06, 0x06, 0xfc, 0xfe,
    0x01, 0xf8, 0x05, 0x00, 0x03, 0xef, 0x03, 0x04, 0xff, 0xfa, 0xfc, 0x06, 0xf6,
    0xf3, 0xf8, 0x06, 0xf8, 0xfe, 0xfb, 0x05, 0x07, 0xfd, 0xfd, 0xfd, 0xed, 0xf0,
    0x01, 0x01, 0xff, 0x00, 0x05, 0x00, 0xe8, 0xef, 0xf0, 0x08, 0x02, 0xff, 0x00,
    0xfc, 0xf7, 0xfa, 0x09, 0x0b, 0x9e, 0xdf, 0xf9, 0x00, 0x09, 0xf2, 0x0c, 0xfc,
    0x07, 0xfb, 0xf7, 0x01, 0x04, 0x04, 0x04, 0xeb, 0xec, 0xe8, 0xf6, 0xfb, 0x0f,
    0x0b, 0x02, 0x02, 0xfc, 0xcf, 0x00, 0xfe, 0xff, 0xeb, 0xf8, 0xf9, 0xf4, 0x08,
    0xf5, 0xfb, 0xe2, 0xee, 0xfb, 0x05, 0xb9, 0x05, 0xe6, 0xfe, 0xfb, 0xe2, 0xf1,
    0xf9, 0x00, 0xfe, 0xfa, 0x0e, 0x09, 0x01, 0x00, 0x06, 0xf9, 0x01, 0xfe, 0x00,
    0x07, 0x0d, 0xfd, 0x21, 0x04, 0xe1, 0x08, 0xfd, 0x04, 0x0d, 0x04, 0xff, 0x05,
    0xf6, 0xfb, 0xfc, 0x0a, 0xfc, 0x04, 0x0a, 0xfe, 0xfe, 0xf9, 0xff, 0x03, 0x09,
    0x07, 0x04, 0xf9, 0xed, 0xfb, 0x08, 0xf7, 0xfd, 0xf6, 0xd9, 0xf3, 0xff, 0x05,
    0xfd, 0x06, 0x04, 0x12, 0x09, 0x09, 0xc8, 0xee, 0x06, 0xf0, 0x04, 0x03, 0xfb,
    0xff, 0x03, 0x01, 0x07, 0x03, 0xff, 0x02, 0xfa, 0xe8, 0x03, 0x05, 0xf7, 0xfa,
    0xeb, 0x00, 0xfe, 0x05, 0x02, 0xf5, 0xfc, 0x0f, 0xeb, 0xf0, 0x08, 0x22, 0xe6,
    0xf9, 0xfa, 0x09, 0x14, 0xfc, 0xe9, 0x09, 0xf6, 0x16, 0x03, 0x04, 0x14, 0x02,
    0x06, 0x01, 0x04, 0xf8, 0xfe, 0xf9, 0xf0, 0xff, 0xfd, 0x00, 0x00, 0xf9, 0x04,
    0xff, 0x04, 0xee, 0xf6, 0xe8, 0x07, 0x08, 0x11, 0xf8, 0xf6, 0x01, 0x00, 0xfd,
    0xf9, 0xf9, 0xfd, 0xee, 0xfb, 0x05, 0x04, 0xfb, 0x0b, 0x0f, 0x0d, 0xf9, 0xf7,
    0x02, 0x07, 0x00, 0x00, 0xf8, 0xf2, 0x09, 0xf0, 0xfc, 0x01, 0x01, 0x08, 0xff,
    0x05, 0x0d, 0x01, 0x0f, 0xfe, 0x01, 0x00, 0xf0, 0xfd, 0xff, 0xfc, 0xfa, 0x07,
    0x00, 0x0a, 0x03, 0x02, 0xf8, 0x07, 0x06, 0xf8, 0x00, 0xfb, 0xf1, 0x05, 0x02,
    0x02, 0x14, 0xf9, 0x05, 0xf4, 0x0b, 0x08, 0x01, 0xfd, 0x0b, 0xf9, 0x13, 0x0b,
    0x04, 0x09, 0xfa, 0x0f, 0xfd, 0xf7, 0xfb, 0xf6, 0x06, 0xff, 0xfd, 0xfb, 0x0b,
    0x01, 0x02, 0xff, 0x00, 0x00, 0x08, 0xfe, 0xf7, 0x01, 0xf3, 0x03, 0x08, 0x02,
    0x0c, 0x0e, 0xf1, 0x00, 0xfc, 0xfc, 0xef, 0x02, 0x0b, 0x08, 0x00, 0x0a, 0xfc,
    0x05, 0x01, 0xd6, 0xff, 0x01, 0x02, 0xf6, 0x05, 0x01, 0x09, 0xff, 0x00, 0x09,
    0x02, 0x04, 0x06, 0x09, 0xf5, 0xfe, 0x09, 0x03, 0xfb, 0xff, 0xfe, 0x0d, 0x05,
    0xfb, 0xfb, 0xf6, 0x04, 0x08, 0xf7, 0x0a, 0xed, 0xf7, 0x00, 0xfd, 0x03, 0xf0,
    0x03, 0x01, 0xf4, 0xf7, 0xf0, 0x0b, 0xfd, 0xf1, 0x00, 0x00, 0xf1, 0xff, 0x0f,
    0xf6, 0xf5, 0xeb, 0x01, 0xfc, 0xe9, 0x08, 0x06, 0xfc, 0x06, 0x03, 0x04, 0xff,
    0xf9, 0x06, 0xfb, 0x0b, 0x09, 0x04, 0x0c, 0xe0, 0xff, 0xfe, 0xf3, 0xf4, 0x01,
    0xfb, 0x05, 0xfd, 0x08, 0x04, 0xf4, 0x01, 0x03, 0x05, 0x09, 0x06, 0x03, 0xe0,
    0xe7, 0x07, 0xd3, 0x03, 0x08, 0x09, 0x05, 0xfb, 0x0a, 0x06, 0xfb, 0x01, 0x03,
    0x02, 0xff, 0x03, 0x12, 0x01, 0x06, 0xfd, 0x0b, 0x05, 0xfc, 0x04, 0x00, 0x0a,
    0xfe, 0xff, 0x09, 0xff, 0x05, 0xf3, 0xfe, 0x06, 0xec, 0x00, 0x00, 0x08, 0x0f,
    0x02, 0x02, 0xea, 0x0a, 0x05, 0xec, 0x05, 0xcf, 0x02, 0x0e, 0xf5, 0xfb, 0xfa,
    0xf0, 0xef, 0x0b, 0x0f, 0x00, 0x03, 0xf9, 0xfe, 0x0a, 0x05, 0xf7, 0xf8, 0x05,
    0xfe, 0xf4, 0xf9, 0x07, 0xfd, 0x01, 0xfc, 0x0a, 0xfe, 0xf3, 0xff, 0x0c, 0xe8,
    0x05, 0x01, 0xfc, 0x09, 0x08, 0x01, 0xfd, 0x05, 0xf0, 0xfe, 0xfa, 0x00, 0xfd,
    0x01, 0x04, 0xef, 0xf5, 0x06, 0xfe, 0x00, 0x08, 0x07, 0xf9, 0x04, 0x04, 0x08,
    0x0a, 0x05, 0xfb, 0x02, 0x08, 0x0b, 0x05, 0xf6, 0xf5, 0xff, 0x0a, 0x06, 0x04,
    0xfd, 0x00, 0x04, 0xfe, 0x05, 0xf8, 0x01, 0xf8, 0x10, 0xfd, 0xf9, 0x03, 0xf6,
    0x05, 0xf3, 0xc6, 0xf6, 0x08, 0xff, 0x13, 0x0d, 0x09, 0xfc, 0xfc, 0xfa, 0xff,
    0x01, 0x05, 0x0b, 0x06, 0xfe, 0x06, 0x01, 0xf8, 0xfc, 0x0d, 0xeb, 0x00, 0xe7,
    0x02, 0xef, 0xe0, 0xfa, 0x06, 0xe7, 0x00, 0x11, 0x01, 0xf5, 0x19, 0xfd, 0xfb,
    0x04, 0xe3, 0xf9, 0x03, 0x08, 0xfd, 0x05, 0x00, 0xee, 0x06, 0xfe, 0xfb, 0xf4,
    0x04, 0xef, 0xdd, 0xf6, 0x18, 0xf3, 0xde, 0xfa, 0x06, 0x09, 0xd8, 0x01, 0xf1,
    0x07, 0xf9, 0xee, 0x06, 0xe1, 0x12, 0xfd, 0x08, 0xf7, 0x0c, 0xf3, 0xff, 0x07,
    0xff, 0x09, 0xfd, 0xf7, 0x00, 0xf1, 0xdb, 0xf9, 0xfd, 0xfd, 0x04, 0xfd, 0x06,
    0xfa, 0xf6, 0x10, 0xf9, 0xf4, 0xfd, 0x07, 0xe3, 0xeb, 0xff, 0x0b, 0x0a, 0x00,
    0x09, 0x05, 0xfa, 0xff, 0x07, 0xf3, 0x09, 0xfc, 0xff, 0xfe, 0x11, 0x06, 0x08,
    0xe5, 0xf6, 0x07, 0xeb, 0x06, 0x03, 0xf9, 0xff, 0xff, 0x06, 0xe7, 0xff, 0x06,
    0x01, 0xf8, 0xd5, 0xed, 0x07, 0xff, 0x11, 0xf2, 0xf4, 0xf7, 0xf2, 0xcc, 0xe7,
    0x0b, 0xfc, 0x0e, 0xff, 0xfc, 0x02, 0x03, 0x05, 0x09, 0xf4, 0xe4, 0xe7, 0x1a,
    0x37, 0xff, 0x03, 0x0a, 0x02, 0x02, 0xdd, 0xef, 0xed, 0xf0, 0xc8, 0xfc, 0x0c,
    0x06, 0x06, 0x01, 0x04, 0xf5, 0x01, 0x04, 0x07, 0x06, 0x02, 0x00, 0x02, 0xf7,
    0xdd, 0x12, 0x0d, 0x05, 0x0d, 0xf4, 0xf6, 0x01, 0x06, 0x09, 0x01, 0x05, 0xf3,
    0xf7, 0xfb, 0xe0, 0xfc, 0xf6, 0xff, 0xfb, 0x04, 0xfb, 0xe4, 0xf8, 0x07, 0xf3,
    0x09, 0xfb, 0x15, 0xf2, 0x0b, 0x06, 0xfa, 0xed, 0x12, 0x04, 0xfb, 0x05, 0x0c,
    0x0f, 0x05, 0xf2, 0x07, 0xf3, 0x00, 0xfd, 0xf8, 0x00, 0xf7, 0xe2, 0xf3, 0xee,
    0xe6, 0xf0, 0xe4, 0xf6, 0xf0, 0x08, 0x11, 0xf7, 0x09, 0xf1, 0xff, 0x09, 0xf9,
    0x00, 0x04, 0xed, 0x07, 0xfd, 0x05, 0xd6, 0xfb, 0x01, 0xf8, 0xfc, 0x01, 0x05,
    0x07, 0xef, 0xfd, 0xff, 0x09, 0xfe, 0xf5, 0xd3, 0x01, 0x16, 0xf6, 0x20, 0x0d,
    0x0e, 0xf7, 0x03, 0xee, 0x06, 0xf9, 0xda, 0x02, 0xf8, 0x02, 0xeb, 0x03, 0xf2,
    0x09, 0xc4, 0xbe, 0xfd, 0x06, 0xf6, 0xfb, 0x09, 0xd2, 0xf6, 0xf9, 0xff, 0xfb,
    0xfa, 0x0e, 0xf1, 0x05, 0xff, 0x02, 0xf1, 0x02, 0xd6, 0xfa, 0xff, 0x0e, 0x01,
    0xf7, 0x07, 0x00, 0x01, 0x00, 0x07, 0x00, 0xfd, 0x08, 0xfc, 0xe9, 0x0c, 0xfa,
    0xfa, 0x0b, 0xf7, 0xf0, 0x04, 0x07, 0x01, 0x03, 0xfe, 0xfe, 0xdc, 0x05, 0x07,
    0x03, 0x00, 0xfb, 0xef, 0x09, 0xf9, 0x1b, 0x03, 0xfb, 0x12, 0xc9, 0xee, 0x09,
    0xe8, 0x0d, 0xde, 0xc8, 0x06, 0x01, 0xfa, 0xf3, 0xff, 0x0f, 0x00, 0x0b, 0xfb,
    0xf8, 0xde, 0xf2, 0x0c, 0x18, 0xf3, 0xff, 0xfe, 0x03, 0x8e, 0xfa, 0x08, 0xfd,
    0xfa, 0x02, 0xfb, 0xfe, 0x08, 0xcd, 0x0e, 0xfd, 0x00, 0x12, 0xea, 0xe4, 0xe2,
    0x07, 0x10, 0x01, 0xc3, 0xee, 0x02, 0xfe, 0x04, 0xf6, 0x00, 0x10, 0x00, 0x0a,
    0x0f, 0x01, 0xeb, 0x09, 0x00, 0xc6, 0x11, 0xbd, 0xf6, 0x14, 0x0c, 0xf6, 0x02,
    0x04, 0xfb, 0x01, 0x03, 0x01, 0xf4, 0xfc, 0x03, 0x0c, 0x09, 0xf1, 0xff, 0xfd,
    0x02, 0x0b, 0x03, 0xf6, 0xfc, 0xf9, 0x06, 0x02, 0x06, 0xfa, 0x00, 0x07, 0xd9,
    0xfd, 0x08, 0x02, 0xf2, 0x09, 0xea, 0xfe, 0xf9, 0xfd, 0x06, 0x01, 0xf1, 0x07,
    0xe7, 0x03, 0x00, 0xf5, 0x06, 0xef, 0xf0, 0xef, 0x05, 0x11, 0x0a, 0x0c, 0xc1,
    0xf8, 0x09, 0xfe, 0x07, 0x05, 0x0e, 0x03, 0x13, 0xeb, 0x13, 0xf0, 0x07, 0xec,
    0xf6, 0x04, 0xfd, 0xed, 0x00, 0x00, 0xfd, 0xfd, 0xf4, 0x05, 0xf1, 0xff, 0xf6,
    0xf7, 0xea, 0xf2, 0xdf, 0xfa, 0x00, 0x03, 0xf6, 0xf3, 0x04, 0x03, 0x0a, 0x04,
    0x02, 0x06, 0x08, 0xda, 0x07, 0xee, 0x00, 0xff, 0x00, 0xff, 0x18, 0x0c, 0x0a,
    0x04, 0x02, 0x08, 0x14, 0xee, 0xf2, 0xfd, 0xed, 0x07, 0xf3, 0xee, 0xf7, 0xfd,
    0x16, 0x03, 0xfb, 0x0a, 0xfb, 0x04, 0x0d, 0x05, 0xff, 0x04, 0xf3, 0x02, 0xfe,
    0x03, 0xf3, 0xee, 0x0c, 0xf7, 0xff, 0x05, 0x0c, 0xf3, 0xf3, 0x06, 0x00, 0xff,
    0x03, 0xf7, 0xfe, 0xfb, 0x06, 0x00, 0x12, 0x00, 0xf9, 0x06, 0x07, 0x03, 0x06,
    0xfb, 0xea, 0x0d, 0xf4, 0x15, 0x04, 0x03, 0x1b, 0xf0, 0xfb, 0xf9, 0x04, 0xf8,
    0xfd, 0x11, 0x05, 0x0d, 0x04, 0xfb, 0xfc, 0xfe, 0x00, 0xff, 0xf4, 0xe5, 0xf7,
    0xef, 0x05, 0x23, 0x05, 0xfa, 0x14, 0x02, 0x07, 0xe9, 0xfa, 0xfe, 0xe5, 0xf5,
    0x13, 0x02, 0xfa, 0xe9, 0xe0, 0x00, 0x00, 0xef, 0x06, 0xf3, 0x0b, 0x01, 0x07,
    0x02, 0xfb, 0xfe, 0x02, 0x07, 0xf2, 0x05, 0x04, 0x0a, 0xde, 0x00, 0xe9, 0xf3,
    0x07, 0x05, 0xeb, 0x08, 0xfd, 0xf6, 0xfe, 0xe0, 0xd7, 0x00, 0x08, 0x03, 0x06,
    0xfd, 0x02, 0xf5, 0xf2, 0xf0, 0xec, 0x0a, 0xff, 0x11, 0x09, 0x04, 0xf5, 0x0e,
    0x02, 0x16, 0x16, 0xe5, 0xf4, 0x06, 0x06, 0x0a, 0x06, 0x0b, 0xfe, 0xe3, 0xf5,
    0xf7, 0x0a, 0x09, 0x0a, 0xfd, 0x04, 0x06, 0xf2, 0x08, 0xfe, 0xd2, 0xfe, 0x0d,
    0x02, 0xf5, 0x06, 0xfc, 0xf3, 0x10, 0xee, 0xfb, 0xf8, 0xfe, 0xe1, 0x0c, 0xfc,
    0xf1, 0x08, 0x05, 0xe0, 0x07, 0xfe, 0xf7, 0xf1, 0xf8, 0xfb, 0xfe, 0x00, 0xf0,
    0x05, 0x03, 0xf4, 0x07, 0x0c, 0xf5, 0xf5, 0xe4, 0xfe, 0x09, 0x01, 0xe0, 0xee,
    0xeb, 0xf8, 0x06, 0xf8, 0x0e, 0xe7, 0x0e, 0xf6, 0xf3, 0x05, 0xfe, 0xe5, 0x0a,
    0x08, 0xf9, 0xf9, 0xfe, 0xfe, 0xf4, 0x03, 0x06, 0xfa, 0xfd, 0xfe, 0xf3, 0xfc,
    0xfe, 0xdd, 0x0b, 0x09, 0x03, 0xf8, 0x09, 0x00, 0x02, 0x03, 0xfe, 0xfe, 0x02,
    0xf7, 0xff, 0xfa, 0x08, 0x02, 0x07, 0x04, 0xee, 0xfb, 0x0d, 0x04, 0xe9, 0xf0,
    0x02, 0x06, 0xf7, 0x03, 0xf9, 0x01, 0x01, 0xff, 0x05, 0x0c, 0x08, 0x03, 0x08,
    0x01, 0x05, 0xee, 0x0f, 0x00, 0x0d, 0x05, 0x02, 0xfd, 0x00, 0xfc, 0xfa, 0xf2,
    0xfa, 0x04, 0xf4, 0x09, 0x06, 0xf8, 0xfe, 0xf8, 0xf6, 0x00, 0xf2, 0xfa, 0x03,
    0x0c, 0xff, 0x03, 0x00, 0x05, 0x14, 0x06, 0x00, 0xf7, 0x00, 0x03, 0xf8, 0x0d,
    0xee, 0x01, 0xe9, 0xf4, 0xe8, 0xd0, 0x0b, 0xfe, 0xf2, 0xfe, 0xfb, 0x0a, 0x04,
    0x00, 0x02, 0xf4, 0x04, 0x06, 0x03, 0xfb, 0xf7, 0x01, 0x05, 0x01, 0x0a, 0xff,
    0xf8, 0xd8, 0x14, 0xf3, 0x03, 0x04, 0x05, 0xff, 0x09, 0x0a, 0xf8, 0x07, 0x08,
    0xfa, 0x05, 0x05, 0x09, 0xf4, 0xff, 0xfc, 0xfa, 0x04, 0xea, 0x00, 0x03, 0xfd,
    0x06, 0x03, 0x0b, 0xfe, 0xef, 0xf8, 0x01, 0x03, 0x08, 0xec, 0xf8, 0xe8, 0xf7,
    0xf7, 0xf6, 0x01, 0xec, 0xf5, 0xfd, 0xfe, 0x02, 0x0e, 0x02, 0x07, 0xf7, 0x02,
    0xf2, 0x08, 0x0f, 0xfc, 0xf1, 0x11, 0x02, 0x08, 0x03, 0x06, 0xed, 0x08, 0x11,
    0x12, 0xeb, 0xe3, 0x0f, 0x0a, 0xf1, 0xff, 0x02, 0x04, 0x11, 0xe4, 0xf3, 0x09,
    0xd4, 0x0d, 0x07, 0xec, 0x00, 0x00, 0x06, 0xfd, 0x04, 0x0a, 0x09, 0xf2, 0x00,
    0x02, 0xfb, 0xfc, 0xf4, 0xed, 0xfb, 0x07, 0xef, 0x04, 0xc0, 0xe1, 0xfe, 0xf8,
    0xfe, 0xd1, 0xe7, 0xfd, 0x06, 0xf4, 0xf9, 0xfd, 0x01, 0x01, 0xf8, 0x01, 0xf0,
    0xe6, 0xd6, 0x02, 0xd9, 0x08, 0x00, 0x19, 0xed, 0xf3, 0xfd, 0xd5, 0xf1, 0xf2,
    0xf6, 0x09, 0xe1, 0x00, 0xf3, 0x06, 0xf6, 0xd5, 0xfc, 0x06, 0x0d, 0xfd, 0xe0,
    0xfb, 0x07, 0xfa, 0xfc, 0xe0, 0xfa, 0xe9, 0xfc, 0xaf, 0x05, 0x05, 0xee, 0x0c,
    0x02, 0x00, 0xfc, 0x01, 0x06, 0x09, 0xee, 0xf5, 0xae, 0xfe, 0xed, 0xf9, 0xf7,
    0x02, 0x03, 0x02, 0x00, 0x05, 0x00, 0xf2, 0xd5, 0xea, 0x18, 0xe8, 0xfd, 0x00,
    0x02, 0xd9, 0xdb, 0x06, 0xdc, 0x02, 0x06, 0x04, 0x03, 0xec, 0x04, 0x02, 0xfe,
    0x02, 0xfc, 0x05, 0x0e, 0x04, 0x01, 0xf6, 0x01, 0x00, 0x05, 0xfd, 0xfb, 0xe2,
    0xee, 0xf6, 0x04, 0xf7, 0xf0, 0xf0, 0xfe, 0xff, 0x00, 0x03, 0xf1, 0xfa, 0xfe,
    0x05, 0xf8, 0x00, 0xfc, 0xf9, 0x03, 0x08, 0xf7, 0xfb, 0xf4, 0x07, 0x01, 0x00,
    0xf7, 0x07, 0xf4, 0xf2, 0x05, 0xf7, 0xf2, 0xea, 0x07, 0xf1, 0x01, 0x10, 0xfb,
    0xfc, 0x06, 0xf9, 0x01, 0x06, 0xe8, 0x07, 0x05, 0x06, 0xe9, 0xf9, 0x0d, 0xf5,
    0x0a, 0x00, 0xfe, 0x04, 0x0b, 0x11, 0x03, 0x03, 0x06, 0x05, 0xfa, 0x03, 0x06,
    0x05, 0xfa, 0x08, 0xf9, 0x05, 0x00, 0xfe, 0x05, 0xf7, 0x04, 0xfa, 0x04, 0xe5,
    0x04, 0xf9, 0x07, 0xff, 0x0a, 0x08, 0xff, 0xf8, 0x05, 0xfa, 0x03, 0x16, 0xfc,
    0x04, 0xf5, 0xf5, 0x09, 0x10, 0xf5, 0x09, 0xf9, 0xf8, 0x03, 0xfb, 0xe7, 0x08,
    0xf5, 0x0d, 0x04, 0xf1, 0xbc, 0xee, 0xff, 0xff, 0xf2, 0xf7, 0xff, 0xff, 0x04,
    0x00, 0x00, 0x00, 0x00, 0x04, 0x00, 0x00, 0x01, 0xf3, 0x04, 0x01, 0x10, 0xbf,
    0x17, 0x03, 0xfa, 0x01, 0xfe, 0x01, 0xfd, 0x53, 0x03, 0xff, 0x3b, 0xff, 0x00,
    0x00, 0x00, 0x01, 0x08, 0xbd, 0x0c, 0xe6, 0xfe, 0xc2, 0x15, 0x06, 0x11, 0xe9,
    0x26, 0xb7, 0x18, 0xfe, 0xfd, 0xfd, 0x0e, 0xfd, 0x20, 0x00, 0x06, 0x05, 0xde,
    0xcb, 0x13, 0xe5, 0xeb, 0xf2, 0xed, 0x01, 0x01, 0xd8, 0x1c, 0x1b, 0xfe, 0x04,
    0x02, 0xfc, 0x01, 0xf7, 0x56, 0x0e, 0x16, 0xe8, 0xda, 0x15, 0x11, 0x12, 0xd7,
    0xeb, 0x03, 0xfe, 0xff, 0xfd, 0xfe, 0x4d, 0xec, 0x02, 0x01, 0xfa, 0xfe, 0x03,
    0x4e, 0xf9, 0x04, 0xfe, 0x2c, 0xfa, 0xe8, 0x09, 0xf0, 0x09, 0xfb, 0xf4, 0x96,
    0x36, 0xfb, 0xfe, 0xfd, 0x02, 0x01, 0x0b, 0xcd, 0x17, 0x13, 0x34, 0xe6, 0x12,
    0xf3, 0x09, 0x16, 0x3d, 0x07, 0xd4, 0x06, 0xf4, 0xe1, 0xef, 0xed, 0x03, 0xfe,
    0xff, 0xfd, 0x04, 0xd4, 0x5f, 0x00, 0xff, 0xfe, 0xff, 0x02, 0xd3, 0x4f, 0xf2,
    0xfc, 0x02, 0x1d, 0xb9, 0x09, 0xfe, 0xfb, 0x01, 0x1c, 0x18, 0x12, 0xdd, 0x2d,
    0x14, 0xee, 0xe7, 0xfd, 0xf0, 0xcc, 0x0a, 0xe0, 0xf0, 0xce, 0x0f, 0x12, 0x0c,
    0xce, 0xed, 0xdf, 0x16, 0x24, 0x0c, 0xec, 0xec, 0xf2, 0xfc, 0xd9, 0x20, 0xf6,
    0x06, 0xff, 0x02, 0x07, 0x81, 0x0a, 0xff, 0xfe, 0x03, 0xf8, 0x1b, 0x0a, 0x0c,
    0xe7, 0x12, 0xed, 0x12, 0xfd, 0x4e, 0xbc, 0x0b, 0x01, 0xfe, 0xff, 0xff, 0x01,
    0x00, 0x17, 0xa5, 0x22, 0xff, 0xfe, 0xfe, 0x07, 0xf4, 0xe6, 0xf4, 0x04, 0xfa,
    0xef, 0xd7, 0x04, 0x26, 0xf4, 0xf5, 0x0e, 0x11, 0x37, 0xf7, 0x00, 0xb9, 0x00,
    0x39, 0xfd, 0x02, 0xff, 0x00, 0x01, 0x02, 0xff, 0xfa, 0x4c, 0xf2, 0xfb, 0x00,
    0x05, 0xf6, 0x3e, 0xd4, 0x18, 0x01, 0xef, 0xfd, 0xf7, 0x02, 0xd2, 0x24, 0x1d,
    0x02, 0x1d, 0xf9, 0xec, 0x08, 0xf1, 0xed, 0x28, 0x0f, 0x28, 0x0c, 0xea, 0x12,
    0x33, 0xcb, 0xfc, 0x0c, 0x04, 0x0a, 0xe5, 0x2b, 0x0e, 0xe9, 0xcf, 0xf2, 0x0c,
    0x12, 0x5d, 0xd4, 0x09, 0x01, 0x00, 0x00, 0xff, 0xf8, 0x26, 0xfd, 0x00, 0xed,
    0x2a, 0xdf, 0x0c, 0x13, 0x20, 0xf5, 0x0f, 0xff, 0x12, 0xbe, 0x1f, 0xe1, 0xe9,
    0x01, 0xf2, 0x15, 0x11, 0xfe, 0x2b, 0x18, 0x07, 0xf9, 0x1b, 0x11, 0xfd, 0xf4,
    0xe0, 0x05, 0xeb, 0xfd, 0x20, 0xe6, 0x2c, 0xef, 0xd8, 0x21, 0xed, 0xfd, 0x14,
    0x10, 0x15, 0x0c, 0xdf, 0xe0, 0xfe, 0xfd, 0x01, 0x55, 0xc6, 0x03, 0x00, 0x00,
    0xdd, 0xe2, 0x31, 0xed, 0x02, 0xf9, 0xf1, 0x0e, 0xfd, 0x05, 0xfd, 0x02, 0xfd,
    0x24, 0xa7, 0x13, 0x03, 0x0c, 0xf9, 0xfa, 0x0d, 0x1f, 0xcf, 0x11, 0x17, 0x0d,
    0xfe, 0xdc, 0xf1, 0x02, 0x02, 0x1d, 0x0e, 0x31, 0xfb, 0x0e, 0xf1, 0xd3, 0xf7,
    0xe9, 0xf8, 0xf5, 0x29, 0x01, 0x0a, 0x00, 0x01, 0xf6, 0xf5, 0xe4, 0xec, 0xfa,
    0xfc, 0x1d, 0xf6, 0x0a, 0xfd, 0x13, 0xef, 0x05, 0x0f, 0xf5, 0xc9, 0x06, 0x06,
    0x0f, 0xde, 0x11, 0xe0, 0xf8, 0x21, 0xfb, 0xf3, 0xfe, 0x38, 0xe0, 0x0b, 0xe4,
    0x10, 0xf9, 0x04, 0x03, 0xcb, 0x6b, 0xf5, 0xfc, 0x00, 0xfe, 0xb7, 0x04, 0x02,
    0x00, 0xff, 0x02, 0xf2, 0x5c, 0xf8, 0xfa, 0xed, 0xed, 0x1c, 0x22, 0xe5, 0x18,
    0x0e, 0x02, 0x13, 0xf7, 0x11, 0xfd, 0xe4, 0xf0, 0xf9, 0x22, 0xeb, 0x0e, 0xe4,
    0xee, 0x2d, 0xeb, 0xe4, 0x04, 0xff, 0xfd, 0x07, 0x0c, 0xce, 0xf1, 0xf3, 0xfb,
    0x2a, 0xef, 0x22, 0x21, 0xfd, 0xfd, 0xc7, 0xf3, 0x04, 0xff, 0x02, 0x00, 0x00,
    0xdc, 0x01, 0xb3, 0x3b, 0xe2, 0x00, 0x09, 0xfd, 0x05, 0xfa, 0x0a, 0x19, 0x0e,
    0xc7, 0xf9, 0x19, 0x17, 0xff, 0xff, 0x05, 0xed, 0xd9, 0x10, 0xfc, 0x0c, 0x28,
    0xda, 0x37, 0x0f, 0xdd, 0xf4, 0x14, 0xfb, 0x5c, 0x04, 0xe5, 0x03, 0x02, 0xfd,
    0x03, 0xf9, 0xec, 0xed, 0x1b, 0xda, 0x2b, 0xed, 0x1d, 0x07, 0x0e, 0xfe, 0x01,
    0xfc, 0x02, 0xfa, 0xf8, 0x55, 0xd8, 0x19, 0xdc, 0x21, 0xeb, 0xe6, 0x1b, 0x2a,
    0xf8, 0x07, 0x17, 0xf2, 0xed, 0xdf, 0xca, 0xea, 0xec, 0x09, 0xf3, 0x05, 0xde,
    0x2f, 0x12, 0x15, 0xe8, 0x06, 0x19, 0xf9, 0x05, 0xc7, 0x08, 0xf9, 0x10, 0xda,
    0x0e, 0x02, 0xf0, 0x01, 0xe7, 0x07, 0x0c, 0xf4, 0x0e, 0xf7, 0x10, 0x2f, 0x08,
    0xf2, 0x03, 0xc6, 0x04, 0xfb, 0xeb, 0x13, 0xfc, 0xfe, 0xff, 0x02, 0x04, 0xfc,
    0xfe, 0xca, 0xf4, 0x06, 0x04, 0x00, 0xfc, 0x10, 0xc7, 0x12, 0xf7, 0x03, 0xf7,
    0xda, 0x25, 0xcf, 0xf4, 0xe9, 0x06, 0xed, 0x03, 0x09, 0x0a, 0xff, 0x0f, 0xfb,
    0xce, 0x2a, 0xfe, 0x03, 0x04, 0xff, 0xfd, 0x02, 0xff, 0x07, 0x03, 0xf9, 0xfc,
    0x00, 0xf4, 0x1f, 0x38, 0x01, 0x07, 0xdc, 0x06, 0xff, 0xf9, 0xe9, 0x5d, 0xf6,
    0x31, 0x1d, 0xfe, 0xfd, 0xff, 0x0b, 0xd7, 0xf6, 0x11, 0xbf, 0x2b, 0xf0, 0x09,
    0x03, 0x1a, 0x17, 0x01, 0x4e, 0xed, 0x0a, 0xfa, 0x07, 0xfb, 0x01, 0xff, 0x08,
    0xfe, 0xfc, 0x01, 0x06, 0x25, 0xa7, 0x1e, 0x05, 0x08, 0x0b, 0xf4, 0xd8, 0x09,
    0x05, 0xe9, 0x00, 0x06, 0xfd, 0x29, 0xf2, 0x13, 0xfa, 0x29, 0xf8, 0x0c, 0x2b,
    0xe8, 0x01, 0x02, 0xce, 0x0b, 0xff, 0xfc, 0xff, 0x03, 0x00, 0x02, 0xb5, 0x1f,
    0xf8, 0xf4, 0x29, 0x0f, 0x02, 0xd2, 0x04, 0x33, 0xdc, 0x0c, 0xdf, 0xf9, 0x22,
    0xc0, 0x2b, 0xfa, 0x00, 0x00, 0xfc, 0xfc, 0x07, 0xec, 0x04, 0xf9, 0x48, 0xe1,
    0xdf, 0x00, 0x00, 0x04, 0xff, 0xe5, 0xf9, 0xe8, 0x11, 0x19, 0xe2, 0xf8, 0xf8,
    0xfe, 0x03, 0x00, 0xff, 0x36, 0xa9, 0x06, 0x05, 0x03, 0xe8, 0x0c, 0xe7, 0x0f,
    0xeb, 0xb5, 0x19, 0x08, 0xf2, 0xcf, 0x03, 0x12, 0x08, 0x04, 0xf5, 0x03, 0x02,
    0x06, 0xc4, 0xfe, 0x21, 0xfe, 0x00, 0x15, 0xea, 0x1f, 0xff, 0xf6, 0x1f, 0x00,
    0x18, 0x0e, 0x13, 0xdf, 0x1f, 0xfb, 0x04, 0x06, 0xd8, 0xff, 0x04, 0xfd, 0x04,
    0xff, 0xb3, 0xfd, 0x04, 0x03, 0xfe, 0x04, 0x01, 0x04, 0xfd, 0xaf, 0x04, 0xff,
    0xfe, 0xfa, 0x09, 0xfe, 0xfd, 0xfe, 0x52, 0x06, 0xfb, 0xfd, 0xff, 0x01, 0x09,
    0x2a, 0xc2, 0xe5, 0x26, 0xee, 0xf2, 0xf2, 0x3a, 0xdd, 0x06, 0x0b, 0x02, 0x05,
    0x04, 0xfd, 0x01, 0x1b, 0x9a, 0xe9, 0x22, 0xf1, 0xfb, 0x19, 0xcb, 0x1e, 0x12,
    0xfd, 0xff, 0xfe, 0x61, 0xfa, 0x01, 0xf8, 0x04, 0x01, 0x00, 0x04, 0xfb, 0xfb,
    0x48, 0xbb, 0x03, 0x01, 0xfe, 0xfc, 0x1b, 0xd5, 0x27, 0xf0, 0x12, 0x03, 0xdf,
    0x1f, 0xec, 0xdc, 0x2e, 0xf5, 0xfe, 0x08, 0xe7, 0x40, 0xf1, 0xf5, 0xf1, 0x05,
    0xfa, 0xf9, 0x16, 0xad, 0x0c, 0x04, 0xf9, 0x04, 0x00, 0xef, 0x03, 0xfd, 0xf2,
    0xe3, 0x18, 0x04, 0xff, 0x00, 0x02, 0x02, 0x03, 0x93, 0xff, 0x03, 0x02, 0xc4,
    0xf9, 0xff, 0x00, 0x02, 0x08, 0xed, 0x19, 0x49, 0xfe, 0x01, 0xfd, 0x03, 0x01,
    0x02, 0xf9, 0x0a, 0xc6, 0x1e, 0xf7, 0x31, 0x01, 0xfe, 0x07, 0x3d, 0xd9, 0xfa,
    0x12, 0xdd, 0x15, 0xe0, 0x08, 0x08, 0x17, 0xee, 0x05, 0x19, 0xd1, 0x0e, 0xdc,
    0xf2, 0x3f, 0xf3, 0x1e, 0xfc, 0xf7, 0x04, 0x18, 0x03, 0xfb, 0x5a, 0xeb, 0xfe,
    0xfd, 0xfb, 0x03, 0x2b, 0xd4, 0x0b, 0x09, 0x0d, 0x12, 0xec, 0x27, 0x06, 0x04,
    0x0b, 0x1a, 0x23, 0xe8, 0x20, 0x0f, 0xe4, 0x45, 0xf9, 0x01, 0x04, 0x00, 0xff,
    0x03, 0xb7, 0x14, 0xfc, 0xfd, 0x02, 0xfb, 0x1e, 0xfe, 0x0c, 0x11, 0xdd, 0x0e,
    0xc5, 0x2d, 0x02, 0xe6, 0xcc, 0xf2, 0xff, 0xff, 0x02, 0xfc, 0xff, 0xff, 0x04,
    0x00, 0x00, 0x00, 0x00, 0x02, 0x00, 0x00, 0x6e, 0xff, 0xff, 0xff, 0xd4, 0xff,
    0xff, 0xff, 0xa8, 0xff, 0xff, 0xff, 0x89, 0xfc, 0xff, 0xff, 0xd4, 0xff, 0xff,
    0xff, 0x67, 0xfa, 0xff, 0xff, 0x8f, 0xf9, 0xff, 0xff, 0x9f, 0xff, 0xff, 0xff,
    0xef, 0xfb, 0xff, 0xff, 0x9f, 0xff, 0xff, 0xff, 0xa6, 0xff, 0xff, 0xff, 0x65,
    0x00, 0x00, 0x00, 0x71, 0xff, 0xff, 0xff, 0x29, 0xfd, 0xff, 0xff, 0x5a, 0xfa,
    0xff, 0xff, 0x70, 0xff, 0xff, 0xff, 0x5a, 0xff, 0xff, 0xff, 0x3e, 0xff, 0xff,
    0xff, 0x24, 0xfd, 0xff, 0xff, 0x1d, 0xfb, 0xff, 0xff, 0x8c, 0xfc, 0xff, 0xff,
    0x1b, 0xff, 0xff, 0xff, 0x91, 0xff, 0xff, 0xff, 0xcb, 0xff, 0xff, 0xff, 0xb4,
    0xff, 0xff, 0xff, 0x9e, 0xff, 0xff, 0xff, 0x2e, 0xff, 0xff, 0xff, 0x99, 0xfe,
    0xff, 0xff, 0xd5, 0xff, 0xff, 0xff, 0xba, 0xff, 0xff, 0xff, 0xb3, 0xfd, 0xff,
    0xff, 0x9d, 0xfc, 0xff, 0xff, 0xcb, 0xfb, 0xff, 0xff, 0xea, 0xfd, 0xff, 0xff,
    0x93, 0xfb, 0xff, 0xff, 0x9c, 0xff, 0xff, 0xff, 0x07, 0xfe, 0xff, 0xff, 0x31,
    0xfd, 0xff, 0xff, 0x4b, 0xff, 0xff, 0xff, 0x94, 0xff, 0xff, 0xff, 0xbd, 0xfc,
    0xff, 0xff, 0xdb, 0xfc, 0xff, 0xff, 0xe8, 0xff, 0xff, 0xff, 0xf1, 0xfe, 0xff,
    0xff, 0x7d, 0xff, 0xff, 0xff, 0x58, 0xfc, 0xff, 0xff, 0xc8, 0xff, 0xff, 0xff,
    0x65, 0xfe, 0xff, 0xff, 0xd3, 0xff, 0xff, 0xff, 0x45, 0xff, 0xff, 0xff, 0x52,
    0xff, 0xff, 0xff, 0x91, 0xff, 0xff, 0xff, 0x8e, 0xfe, 0xff, 0xff, 0xa5, 0xff,
    0xff, 0xff, 0x97, 0xff, 0xff, 0xff, 0x36, 0xff, 0xff, 0xff, 0x79, 0xff, 0xff,
    0xff, 0x60, 0xfb, 0xff, 0xff, 0xdb, 0xff, 0xff, 0xff, 0x1a, 0xfe, 0xff, 0xff,
    0xdd, 0xff, 0xff, 0xff, 0x5d, 0xff, 0xff, 0xff, 0xab, 0xfd, 0xff, 0xff, 0x64,
    0xff, 0xff, 0xff, 0x64, 0xfb, 0xff, 0xff, 0xb9, 0xff, 0xff, 0xff, 0x63, 0xfa,
    0xff, 0xff, 0xc8, 0xff, 0xff, 0xff, 0x55, 0xfc, 0xff, 0xff, 0xa8, 0xfb, 0xff,
    0xff, 0x6d, 0xfa, 0xff, 0xff, 0x95, 0xfc, 0xff, 0xff, 0xc5, 0xfd, 0xff, 0xff,
    0x37, 0xfe, 0xff, 0xff, 0xd5, 0xff, 0xff, 0xff, 0xb7, 0xff, 0xff, 0xff, 0xc7,
    0xff, 0xff, 0xff, 0x0a, 0xfc, 0xff, 0xff, 0xc3, 0xff, 0xff, 0xff, 0x73, 0x00,
    0x00, 0x00, 0x35, 0xff, 0xff, 0xff, 0x97, 0xff, 0xff, 0xff, 0x91, 0xff, 0xff,
    0xff, 0x6d, 0xfc, 0xff, 0xff, 0xf8, 0xff, 0xff, 0xff, 0xdd, 0xff, 0xff, 0xff,
    0xea, 0xff, 0xff, 0xff, 0x53, 0xfd, 0xff, 0xff, 0x81, 0xfe, 0xff, 0xff, 0xe8,
    0xff, 0xff, 0xff, 0xc6, 0xfa, 0xff, 0xff, 0x6d, 0xfc, 0xff, 0xff, 0x78, 0x00,
    0x00, 0x00, 0x1f, 0xff, 0xff, 0xff, 0x02, 0xfd, 0xff, 0xff, 0xbd, 0xff, 0xff,
    0xff, 0x41, 0xff, 0xff, 0xff, 0x08, 0xff, 0xff, 0xff, 0xd1, 0xff, 0xff, 0xff,
    0x52, 0xff, 0xff, 0xff, 0xe5, 0xff, 0xff, 0xff, 0xe6, 0xff, 0xff, 0xff, 0xb3,
    0xff, 0xff, 0xff, 0x98, 0xff, 0xff, 0xff, 0xde, 0xfc, 0xff, 0xff, 0x93, 0xfc,
    0xff, 0xff, 0x82, 0xff, 0xff, 0xff, 0xfb, 0xfe, 0xff, 0xff, 0x2c, 0xff, 0xff,
    0xff, 0x87, 0xff, 0xff, 0xff, 0x24, 0xff, 0xff, 0xff, 0xcc, 0xfb, 0xff, 0xff,
    0xf0, 0xff, 0xff, 0xff, 0x52, 0xff, 0xff, 0xff, 0x5f, 0xfc, 0xff, 0xff, 0x0b,
    0x00, 0x00, 0x00, 0x11, 0xfe, 0xff, 0xff, 0xf8, 0xff, 0xff, 0xff, 0x60, 0xff,
    0xff, 0xff, 0x85, 0xfd, 0xff, 0xff, 0x83, 0xfc, 0xff, 0xff, 0xb9, 0xfd, 0xff,
    0xff, 0x50, 0xff, 0xff, 0xff, 0x23, 0xff, 0xff, 0xff, 0x08, 0xfb, 0xff, 0xff,
    0x6e, 0xff, 0xff, 0xff, 0x9c, 0xff, 0xff, 0xff, 0xde, 0xfc, 0xff, 0xff, 0x0e,
    0xfe, 0xff, 0xff, 0x04, 0x00, 0x00, 0x00, 0x20, 0x00, 0x00, 0x00, 0xbb, 0xfc,
    0xff, 0xff, 0xc1, 0xff, 0xff, 0xff, 0x50, 0x00, 0x00, 0x00, 0xcb, 0xff, 0xff,
    0xff, 0x6f, 0xff, 0xff, 0xff, 0xdb, 0x00, 0x00, 0x00, 0xb0, 0x00, 0x00, 0x00,
    0xb6, 0xfc, 0xff, 0xff, 0x3a, 0xfe, 0xff, 0xff, 0x04, 0x00, 0x00, 0x00, 0x00,
    0x01, 0x00, 0x00, 0xd8, 0xff, 0xff, 0xff, 0x28, 0x02, 0x00, 0x00, 0x91, 0x01,
    0x00, 0x00, 0xcc, 0x00, 0x00, 0x00, 0x36, 0x02, 0x00, 0x00, 0x1f, 0xfd, 0xff,
    0xff, 0x36, 0x02, 0x00, 0x00, 0xf8, 0x00, 0x00, 0x00, 0x12, 0x02, 0x00, 0x00,
    0x0c, 0x02, 0x00, 0x00, 0xc2, 0x01, 0x00, 0x00, 0xa8, 0xff, 0xff, 0xff, 0xd3,
    0x00, 0x00, 0x00, 0xd4, 0xff, 0xff, 0xff, 0xd2, 0x02, 0x00, 0x00, 0x79, 0xff,
    0xff, 0xff, 0xa7, 0x00, 0x00, 0x00, 0x85, 0x00, 0x00, 0x00, 0x18, 0x01, 0x00,
    0x00, 0xd7, 0xff, 0xff, 0xff, 0x2a, 0x00, 0x00, 0x00, 0x4a, 0x00, 0x00, 0x00,
    0x21, 0x01, 0x00, 0x00, 0x26, 0xfe, 0xff, 0xff, 0x2b, 0x02, 0x00, 0x00, 0x5e,
    0xff, 0xff, 0xff, 0x5c, 0x03, 0x00, 0x00, 0x7a, 0x00, 0x00, 0x00, 0x58, 0xfe,
    0xff, 0xff, 0x62, 0x01, 0x00, 0x00, 0x04, 0x03, 0x00, 0x00, 0x6b, 0x00, 0x00,
    0x00, 0xd5, 0xff, 0xff, 0xff, 0x63, 0x00, 0x00, 0x00, 0x29, 0x00, 0x00, 0x00,
    0x7e, 0x01, 0x00, 0x00, 0x19, 0x00, 0x00, 0x00, 0x29, 0x00, 0x00, 0x00, 0x60,
    0xfd, 0xff, 0xff, 0xbf, 0xfe, 0xff, 0xff, 0x85, 0x01, 0x00, 0x00, 0xf2, 0x00,
    0x00, 0x00, 0x4a, 0xfd, 0xff, 0xff, 0x21, 0x00, 0x00, 0x00, 0x61, 0x01, 0x00,
    0x00, 0x65, 0x00, 0x00, 0x00, 0xdd, 0x00, 0x00, 0x00, 0xd9, 0xff, 0xff, 0xff,
    0x6f, 0x00, 0x00, 0x00, 0x4d, 0x02, 0x00, 0x00, 0xea, 0xff, 0xff, 0xff, 0x7b,
    0x02, 0x00, 0x00, 0x04, 0x00, 0x00, 0x00, 0x32, 0x02, 0x00, 0x00, 0x8b, 0x02,
    0x00, 0x00, 0xb6, 0x02, 0x00, 0x00, 0x54, 0x00, 0x00, 0x00, 0x8f, 0xff, 0xff,
    0xff, 0xee, 0xff, 0xff, 0xff, 0x42, 0xfe, 0xff, 0xff, 0x15, 0x02, 0x00, 0x00,
    0x16, 0x01, 0x00, 0x00, 0x00, 0x02, 0x00, 0x00, 0x38, 0x01, 0x00, 0x00, 0x14,
    0xf6, 0xff, 0xff, 0x18, 0xf6, 0xff, 0xff, 0x0f, 0x00, 0x00, 0x00, 0x4d, 0x4c,
    0x49, 0x52, 0x20, 0x43, 0x6f, 0x6e, 0x76, 0x65, 0x72, 0x74, 0x65, 0x64, 0x2e,
    0x00, 0x01, 0x00, 0x00, 0x00, 0x14, 0x00, 0x00, 0x00, 0x00, 0x00, 0x0e, 0x00,
    0x18, 0x00, 0x14, 0x00, 0x10, 0x00, 0x0c, 0x00, 0x08, 0x00, 0x04, 0x00, 0x0e,
    0x00, 0x00, 0x00, 0x14, 0x00, 0x00, 0x00, 0x1c, 0x00, 0x00, 0x00, 0x7c, 0x01,
    0x00, 0x00, 0x80, 0x01, 0x00, 0x00, 0x84, 0x01, 0x00, 0x00, 0x04, 0x00, 0x00,
    0x00, 0x6d, 0x61, 0x69, 0x6e, 0x00, 0x00, 0x00, 0x00, 0x06, 0x00, 0x00, 0x00,
    0x44, 0x01, 0x00, 0x00, 0xf4, 0x00, 0x00, 0x00, 0xa8, 0x00, 0x00, 0x00, 0x70,
    0x00, 0x00, 0x00, 0x34, 0x00, 0x00, 0x00, 0x10, 0x00, 0x00, 0x00, 0x00, 0x00,
    0x0a, 0x00, 0x10, 0x00, 0x0c, 0x00, 0x08, 0x00, 0x04, 0x00, 0x0a, 0x00, 0x00,
    0x00, 0x0c, 0x00, 0x00, 0x00, 0x10, 0x00, 0x00, 0x00, 0x03, 0x00, 0x00, 0x00,
    0x01, 0x00, 0x00, 0x00, 0x0c, 0x00, 0x00, 0x00, 0x01, 0x00, 0x00, 0x00, 0x0b,
    0x00, 0x00, 0x00, 0x5a, 0xff, 0xff, 0xff, 0x1c, 0x00, 0x00, 0x00, 0x00, 0x00,
    0x00, 0x09, 0x1c, 0x00, 0x00, 0x00, 0x20, 0x00, 0x00, 0x00, 0x02, 0x00, 0x00,
    0x00, 0x00, 0x00, 0x06, 0x00, 0x08, 0x00, 0x04, 0x00, 0x06, 0x00, 0x00, 0x00,
    0x00, 0x00, 0x80, 0x3f, 0x01, 0x00, 0x00, 0x00, 0x0b, 0x00, 0x00, 0x00, 0x01,
    0x00, 0x00, 0x00, 0x0a, 0x00, 0x00, 0x00, 0x92, 0xff, 0xff, 0xff, 0x14, 0x00,
    0x00, 0x00, 0x00, 0x00, 0x00, 0x08, 0x10, 0x00, 0x00, 0x00, 0x14, 0x00, 0x00,
    0x00, 0x01, 0x00, 0x00, 0x00, 0x04, 0xf7, 0xff, 0xff, 0x01, 0x00, 0x00, 0x00,
    0x0a, 0x00, 0x00, 0x00, 0x03, 0x00, 0x00, 0x00, 0x08, 0x00, 0x00, 0x00, 0x09,
    0x00, 0x00, 0x00, 0x02, 0x00, 0x00, 0x00, 0xc6, 0xff, 0xff, 0xff, 0x14, 0x00,
    0x00, 0x00, 0x00, 0x00, 0x00, 0x08, 0x14, 0x00, 0x00, 0x00, 0x18, 0x00, 0x00,
    0x00, 0x01, 0x00, 0x00, 0x00, 0xb6, 0xff, 0xff, 0xff, 0x00, 0x00, 0x00, 0x01,
    0x01, 0x00, 0x00, 0x00, 0x08, 0x00, 0x00, 0x00, 0x03, 0x00, 0x00, 0x00, 0x06,
    0x00, 0x00, 0x00, 0x07, 0x00, 0x00, 0x00, 0x01, 0x00, 0x00, 0x00, 0x00, 0x00,
    0x0e, 0x00, 0x1a, 0x00, 0x14, 0x00, 0x10, 0x00, 0x0c, 0x00, 0x0b, 0x00, 0x04,
    0x00, 0x0e, 0x00, 0x00, 0x00, 0x1c, 0x00, 0x00, 0x00, 0x00, 0x00, 0x00, 0x08,
    0x1c, 0x00, 0x00, 0x00, 0x20, 0x00, 0x00, 0x00, 0x01, 0x00, 0x00, 0x00, 0x00,
    0x00, 0x06, 0x00, 0x08, 0x00, 0x07, 0x00, 0x06, 0x00, 0x00, 0x00, 0x00, 0x00,
    0x00, 0x01, 0x01, 0x00, 0x00, 0x00, 0x06, 0x00, 0x00, 0x00, 0x03, 0x00, 0x00,
    0x00, 0x04, 0x00, 0x00, 0x00, 0x05, 0x00, 0x00, 0x00, 0x03, 0x00, 0x00, 0x00,
    0x00, 0x00, 0x0a, 0x00, 0x0c, 0x00, 0x00, 0x00, 0x08, 0x00, 0x04, 0x00, 0x0a,
    0x00, 0x00, 0x00, 0x08, 0x00, 0x00, 0x00, 0x0c, 0x00, 0x00, 0x00, 0x01, 0x00,
    0x00, 0x00, 0x04, 0x00, 0x00, 0x00, 0x01, 0x00, 0x00, 0x00, 0x00, 0x00, 0x00,
    0x00, 0x01, 0x00, 0x00, 0x00, 0x0c, 0x00, 0x00, 0x00, 0x01, 0x00, 0x00, 0x00,
    0x00, 0x00, 0x00, 0x00, 0x0d, 0x00, 0x00, 0x00, 0xf8, 0x07, 0x00, 0x00, 0x60,
    0x07, 0x00, 0x00, 0xd8, 0x06, 0x00, 0x00, 0x5c, 0x06, 0x00, 0x00, 0x10, 0x05,
    0x00, 0x00, 0x54, 0x04, 0x00, 0x00, 0x98, 0x03, 0x00, 0x00, 0xec, 0x02, 0x00,
    0x00, 0x30, 0x02, 0x00, 0x00, 0x84, 0x01, 0x00, 0x00, 0xe0, 0x00, 0x00, 0x00,
    0x5c, 0x00, 0x00, 0x00, 0x04, 0x00, 0x00, 0x00, 0x50, 0xf8, 0xff, 0xff, 0x14,
    0x00, 0x00, 0x00, 0x1c, 0x00, 0x00, 0x00, 0x1c, 0x00, 0x00, 0x00, 0x0d, 0x00,
    0x00, 0x00, 0x34, 0x00, 0x00, 0x00, 0x02, 0x00, 0x00, 0x00, 0xff, 0xff, 0xff,
    0xff, 0x08, 0x00, 0x00, 0x00, 0x3c, 0xf8, 0xff, 0xff, 0x19, 0x00, 0x00, 0x00,
    0x53, 0x74, 0x61, 0x74, 0x65, 0x66, 0x75, 0x6c, 0x50, 0x61, 0x72, 0x74, 0x69,
    0x74, 0x69, 0x6f, 0x6e, 0x65, 0x64, 0x43, 0x61, 0x6c, 0x6c, 0x3a, 0x30, 0x00,
    0x00, 0x00, 0x02, 0x00, 0x00, 0x00, 0x01, 0x00, 0x00, 0x00, 0x08, 0x00, 0x00,
    0x00, 0x7c, 0xfb, 0xff, 0xff, 0x18, 0x00, 0x00, 0x00, 0x20, 0x00, 0x00, 0x00,
    0x40, 0x00, 0x00, 0x00, 0x0c, 0x00, 0x00, 0x00, 0x00, 0x00, 0x00, 0x09, 0x5c,
    0x00, 0x00, 0x00, 0x02, 0x00, 0x00, 0x00, 0xff, 0xff, 0xff, 0xff, 0x08, 0x00,
    0x00, 0x00, 0x34, 0xf9, 0xff, 0xff, 0x08, 0x00, 0x00, 0x00, 0x14, 0x00, 0x00,
    0x00, 0x01, 0x00, 0x00, 0x00, 0x80, 0xff, 0xff, 0xff, 0xff, 0xff, 0xff, 0xff,
    0x00, 0x00, 0x00, 0x00, 0x01, 0x00, 0x00, 0x00, 0x00, 0x00, 0x80, 0x3b, 0x20,
    0x00, 0x00, 0x00, 0x73, 0x65, 0x71, 0x75, 0x65, 0x6e, 0x74, 0x69, 0x61, 0x6c,
    0x2f, 0x71, 0x75, 0x61, 0x6e, 0x74, 0x5f, 0x64, 0x65, 0x6e, 0x73, 0x65, 0x5f,
    0x32, 0x2f, 0x53, 0x6f, 0x66, 0x74, 0x6d, 0x61, 0x78, 0x00, 0x00, 0x00, 0x00,
    0x02, 0x00, 0x00, 0x00, 0x01, 0x00, 0x00, 0x00, 0x08, 0x00, 0x00, 0x00, 0xfc,
    0xfb, 0xff, 0xff, 0x18, 0x00, 0x00, 0x00, 0x20, 0x00, 0x00, 0x00, 0x40, 0x00,
    0x00, 0x00, 0x0b, 0x00, 0x00, 0x00, 0x00, 0x00, 0x00, 0x09, 0x7c, 0x00, 0x00,
    0x00, 0x02, 0x00, 0x00, 0x00, 0xff, 0xff, 0xff, 0xff, 0x08, 0x00, 0x00, 0x00,
    0xb4, 0xf9, 0xff, 0xff, 0x08, 0x00, 0x00, 0x00, 0x14, 0x00, 0x00, 0x00, 0x01,
    0x00, 0x00, 0x00, 0x6e, 0x00, 0x00, 0x00, 0x00, 0x00, 0x00, 0x00, 0x00, 0x00,
    0x00, 0x00, 0x01, 0x00, 0x00, 0x00, 0x2d, 0x23, 0xaa, 0x3e, 0x40, 0x00, 0x00,
    0x00, 0x73, 0x65, 0x71, 0x75, 0x65, 0x6e, 0x74, 0x69, 0x61, 0x6c, 0x2f, 0x71,
    0x75, 0x61, 0x6e, 0x74, 0x5f, 0x64, 0x65, 0x6e, 0x73, 0x65, 0x5f, 0x32, 0x2f,
    0x4d, 0x61, 0x74, 0x4d, 0x75, 0x6c, 0x3b, 0x73, 0x65, 0x71, 0x75, 0x65, 0x6e,
    0x74, 0x69, 0x61, 0x6c, 0x2f, 0x71, 0x75, 0x61, 0x6e, 0x74, 0x5f, 0x64, 0x65,
    0x6e, 0x73, 0x65, 0x5f, 0x32, 0x2f, 0x42, 0x69, 0x61, 0x73, 0x41, 0x64, 0x64,
    0x00, 0x00, 0x00, 0x00, 0x02, 0x00, 0x00, 0x00, 0x01, 0x00, 0x00, 0x00, 0x08,
    0x00, 0x00, 0x00, 0x52, 0xfa, 0xff, 0xff, 0x14, 0x00, 0x00, 0x00, 0x30, 0x00,
    0x00, 0x00, 0x0a, 0x00, 0x00, 0x00, 0x00, 0x00, 0x00, 0x09, 0x88, 0x00, 0x00,
    0x00, 0x44, 0xfa, 0xff, 0xff, 0x08, 0x00, 0x00, 0x00, 0x10, 0x00, 0x00, 0x00,
    0x01, 0x00, 0x00, 0x00, 0x00, 0x00, 0x00, 0x00, 0x00, 0x00, 0x00, 0x00, 0x01,
    0x00, 0x00, 0x00, 0x1d, 0x84, 0xf0, 0x3c, 0x5f, 0x00, 0x00, 0x00, 0x73, 0x65,
    0x71, 0x75, 0x65, 0x6e, 0x74, 0x69, 0x61, 0x6c, 0x2f, 0x71, 0x75, 0x61, 0x6e,
    0x74, 0x5f, 0x64, 0x65, 0x6e, 0x73, 0x65, 0x5f, 0x32, 0x2f, 0x4d, 0x61, 0x74,
    0x4d, 0x75, 0x6c, 0x3b, 0x73, 0x65, 0x71, 0x75, 0x65, 0x6e, 0x74, 0x69, 0x61,
    0x6c, 0x2f, 0x71, 0x75, 0x61, 0x6e, 0x74, 0x5f, 0x64, 0x65, 0x6e, 0x73, 0x65,
    0x5f, 0x32, 0x2f, 0x4c, 0x61, 0x73, 0x74, 0x56, 0x61, 0x6c, 0x75, 0x65, 0x51,
    0x75, 0x61, 0x6e, 0x74, 0x2f, 0x46, 0x61, 0x6b, 0x65, 0x51, 0x75, 0x61, 0x6e,
    0x74, 0x57, 0x69, 0x74, 0x68, 0x4d, 0x69, 0x6e, 0x4d, 0x61, 0x78, 0x56, 0x61,
    0x72, 0x73, 0x00, 0x02, 0x00, 0x00, 0x00, 0x08, 0x00, 0x00, 0x00, 0x40, 0x00,
    0x00, 0x00, 0x44, 0xfd, 0xff, 0xff, 0x18, 0x00, 0x00, 0x00, 0x20, 0x00, 0x00,
    0x00, 0x3c, 0x00, 0x00, 0x00, 0x09, 0x00, 0x00, 0x00, 0x00, 0x00, 0x00, 0x09,
    0x94, 0x00, 0x00, 0x00, 0x02, 0x00, 0x00, 0x00, 0xff, 0xff, 0xff, 0xff, 0x40,
    0x00, 0x00, 0x00, 0xfc, 0xfa, 0xff, 0xff, 0x08, 0x00, 0x00, 0x00, 0x10, 0x00,
    0x00, 0x00, 0x01, 0x00, 0x00, 0x00, 0x80, 0xff, 0xff, 0xff, 0xff, 0xff, 0xff,
    0xff, 0x01, 0x00, 0x00, 0x00, 0xad, 0x0c, 0x43, 0x3d, 0x5e, 0x00, 0x00, 0x00,
    0x73, 0x65, 0x71, 0x75, 0x65, 0x6e, 0x74, 0x69, 0x61, 0x6c, 0x2f, 0x71, 0x75,
    0x61, 0x6e, 0x74, 0x5f, 0x64, 0x65, 0x6e, 0x73, 0x65, 0x5f, 0x31, 0x2f, 0x4d,
    0x61, 0x74, 0x4d, 0x75, 0x6c, 0x3b, 0x73, 0x65, 0x71, 0x75, 0x65, 0x6e, 0x74,
    0x69, 0x61, 0x6c, 0x2f, 0x71, 0x75, 0x61, 0x6e, 0x74, 0x5f, 0x64, 0x65, 0x6e,
    0x73, 0x65, 0x5f, 0x31, 0x2f, 0x52, 0x65, 0x6c, 0x75, 0x3b, 0x73, 0x65, 0x71,
    0x75, 0x65, 0x6e, 0x74, 0x69, 0x61, 0x6c, 0x2f, 0x71, 0x75, 0x61, 0x6e, 0x74,
    0x5f, 0x64, 0x65, 0x6e, 0x73, 0x65, 0x5f, 0x31, 0x2f, 0x42, 0x69, 0x61, 0x73,
    0x41, 0x64, 0x64, 0x00, 0x00, 0x02, 0x00, 0x00, 0x00, 0x01, 0x00, 0x00, 0x00,
    0x40, 0x00, 0x00, 0x00, 0xb2, 0xfb, 0xff, 0xff, 0x14, 0x00, 0x00, 0x00, 0x30,
    0x00, 0x00, 0x00, 0x08, 0x00, 0x00, 0x00, 0x00, 0x00, 0x00, 0x09, 0x88, 0x00,
    0x00, 0x00, 0xa4, 0xfb, 0xff, 0xff, 0x08, 0x00, 0x00, 0x00, 0x10, 0x00, 0x00,
    0x00, 0x01, 0x00, 0x00, 0x00, 0x00, 0x00, 0x00, 0x00, 0x00, 0x00, 0x00, 0x00,
    0x01, 0x00, 0x00, 0x00, 0x6c, 0x27, 0x45, 0x3d, 0x5f, 0x00, 0x00, 0x00, 0x73,
    0x65, 0x71, 0x75, 0x65, 0x6e, 0x74, 0x69, 0x61, 0x6c, 0x2f, 0x71, 0x75, 0x61,
    0x6e, 0x74, 0x5f, 0x64, 0x65, 0x6e, 0x73, 0x65, 0x5f, 0x31, 0x2f, 0x4d, 0x61,
    0x74, 0x4d, 0x75, 0x6c, 0x3b, 0x73, 0x65, 0x71, 0x75, 0x65, 0x6e, 0x74, 0x69,
    0x61, 0x6c, 0x2f, 0x71, 0x75, 0x61, 0x6e, 0x74, 0x5f, 0x64, 0x65, 0x6e, 0x73,
    0x65, 0x5f, 0x31, 0x2f, 0x4c, 0x61, 0x73, 0x74, 0x56, 0x61, 0x6c, 0x75, 0x65,
    0x51, 0x75, 0x61, 0x6e, 0x74, 0x2f, 0x46, 0x61, 0x6b, 0x65, 0x51, 0x75, 0x61,
    0x6e, 0x74, 0x57, 0x69, 0x74, 0x68, 0x4d, 0x69, 0x6e, 0x4d, 0x61, 0x78, 0x56,
    0x61, 0x72, 0x73, 0x00, 0x02, 0x00, 0x00, 0x00, 0x40, 0x00, 0x00, 0x00, 0x80,
    0x00, 0x00, 0x00, 0xa4, 0xfe, 0xff, 0xff, 0x18, 0x00, 0x00, 0x00, 0x20, 0x00,
    0x00, 0x00, 0x40, 0x00, 0x00, 0x00, 0x07, 0x00, 0x00, 0x00, 0x00, 0x00, 0x00,
    0x09, 0x94, 0x00, 0x00, 0x00, 0x02, 0x00, 0x00, 0x00, 0xff, 0xff, 0xff, 0xff,
    0x80, 0x00, 0x00, 0x00, 0x5c, 0xfc, 0xff, 0xff, 0x08, 0x00, 0x00, 0x00, 0x14,
    0x00, 0x00, 0x00, 0x01, 0x00, 0x00, 0x00, 0x80, 0xff, 0xff, 0xff, 0xff, 0xff,
    0xff, 0xff, 0x00, 0x00, 0x00, 0x00, 0x01, 0x00, 0x00, 0x00, 0x89, 0xe6, 0xfb,
    0x3c, 0x58, 0x00, 0x00, 0x00, 0x73, 0x65, 0x71, 0x75, 0x65, 0x6e, 0x74, 0x69,
    0x61, 0x6c, 0x2f, 0x71, 0x75, 0x61, 0x6e, 0x74, 0x5f, 0x64, 0x65, 0x6e, 0x73,
    0x65, 0x2f, 0x4d, 0x61, 0x74, 0x4d, 0x75, 0x6c, 0x3b, 0x73, 0x65, 0x71, 0x75,
    0x65, 0x6e, 0x74, 0x69, 0x61, 0x6c, 0x2f, 0x71, 0x75, 0x61, 0x6e, 0x74, 0x5f,
    0x64, 0x65, 0x6e, 0x73, 0x65, 0x2f, 0x52, 0x65, 0x6c, 0x75, 0x3b, 0x73, 0x65,
    0x71, 0x75, 0x65, 0x6e, 0x74, 0x69, 0x61, 0x6c, 0x2f, 0x71, 0x75, 0x61, 0x6e,
    0x74, 0x5f, 0x64, 0x65, 0x6e, 0x73, 0x65, 0x2f, 0x42, 0x69, 0x61, 0x73, 0x41,
    0x64, 0x64, 0x00, 0x00, 0x00, 0x00, 0x02, 0x00, 0x00, 0x00, 0x01, 0x00, 0x00,
    0x00, 0x80, 0x00, 0x00, 0x00, 0x12, 0xfd, 0xff, 0xff, 0x14, 0x00, 0x00, 0x00,
    0x30, 0x00, 0x00, 0x00, 0x06, 0x00, 0x00, 0x00, 0x00, 0x00, 0x00, 0x09, 0x84,
    0x00, 0x00, 0x00, 0x04, 0xfd, 0xff, 0xff, 0x08, 0x00, 0x00, 0x00, 0x10, 0x00,
    0x00, 0x00, 0x01, 0x00, 0x00, 0x00, 0x00, 0x00, 0x00, 0x00, 0x00, 0x00, 0x00,
    0x00, 0x01, 0x00, 0x00, 0x00, 0xce, 0x02, 0x82, 0x3c, 0x5b, 0x00, 0x00, 0x00,
    0x73, 0x65, 0x71, 0x75, 0x65, 0x6e, 0x74, 0x69, 0x61, 0x6c, 0x2f, 0x71, 0x75,
    0x61, 0x6e, 0x74, 0x5f, 0x64, 0x65, 0x6e, 0x73, 0x65, 0x2f, 0x4d, 0x61, 0x74,
    0x4d, 0x75, 0x6c, 0x3b, 0x73, 0x65, 0x71, 0x75, 0x65, 0x6e, 0x74, 0x69, 0x61,
    0x6c, 0x2f, 0x71, 0x75, 0x61, 0x6e, 0x74, 0x5f, 0x64, 0x65, 0x6e, 0x73, 0x65,
    0x2f, 0x4c, 0x61, 0x73, 0x74, 0x56, 0x61, 0x6c, 0x75, 0x65, 0x51, 0x75, 0x61,
    0x6e, 0x74, 0x2f, 0x46, 0x61, 0x6b, 0x65, 0x51, 0x75, 0x61, 0x6e, 0x74, 0x57,
    0x69, 0x74, 0x68, 0x4d, 0x69, 0x6e, 0x4d, 0x61, 0x78, 0x56, 0x61, 0x72, 0x73,
    0x00, 0x02, 0x00, 0x00, 0x00, 0x80, 0x00, 0x00, 0x00, 0x08, 0x00, 0x00, 0x00,
    0x14, 0x00, 0x1c, 0x00, 0x18, 0x00, 0x17, 0x00, 0x10, 0x00, 0x0c, 0x00, 0x08,
    0x00, 0x00, 0x00, 0x00, 0x00, 0x04, 0x00, 0x14, 0x00, 0x00, 0x00, 0x18, 0x00,
    0x00, 0x00, 0x20, 0x00, 0x00, 0x00, 0x40, 0x00, 0x00, 0x00, 0x05, 0x00, 0x00,
    0x00, 0x00, 0x00, 0x00, 0x09, 0x24, 0x01, 0x00, 0x00, 0x02, 0x00, 0x00, 0x00,
    0xff, 0xff, 0xff, 0xff, 0x08, 0x00, 0x00, 0x00, 0xcc, 0xfd, 0xff, 0xff, 0x08,
    0x00, 0x00, 0x00, 0x14, 0x00, 0x00, 0x00, 0x01, 0x00, 0x00, 0x00, 0xff, 0xff,
    0xff, 0xff, 0xff, 0xff, 0xff, 0xff, 0x00, 0x00, 0x00, 0x00, 0x01, 0x00, 0x00,
    0x00, 0xc5, 0x09, 0x96, 0x3d, 0xeb, 0x00, 0x00, 0x00, 0x73, 0x65, 0x71, 0x75,
    0x65, 0x6e, 0x74, 0x69, 0x61, 0x6c, 0x2f, 0x71, 0x75, 0x61, 0x6e, 0x74, 0x69,
    0x7a, 0x65, 0x5f, 0x6c, 0x61, 0x79, 0x65, 0x72, 0x2f, 0x41, 0x6c, 0x6c, 0x56,
    0x61, 0x6c, 0x75, 0x65, 0x73, 0x51, 0x75, 0x61, 0x6e, 0x74, 0x69, 0x7a, 0x65,
    0x2f, 0x46, 0x61, 0x6b, 0x65, 0x51, 0x75, 0x61, 0x6e, 0x74, 0x57, 0x69, 0x74,
    0x68, 0x4d, 0x69, 0x6e, 0x4d, 0x61, 0x78, 0x56, 0x61, 0x72, 0x73, 0x3b, 0x73,
    0x65, 0x71, 0x75, 0x65, 0x6e, 0x74, 0x69, 0x61, 0x6c, 0x2f, 0x71, 0x75, 0x61,
    0x6e, 0x74, 0x69, 0x7a, 0x65, 0x5f, 0x6c, 0x61, 0x79, 0x65, 0x72, 0x2f, 0x41,
    0x6c, 0x6c, 0x56, 0x61, 0x6c, 0x75, 0x65, 0x73, 0x51, 0x75, 0x61, 0x6e, 0x74,
    0x69, 0x7a, 0x65, 0x2f, 0x46, 0x61, 0x6b, 0x65, 0x51, 0x75, 0x61, 0x6e, 0x74,
    0x57, 0x69, 0x74, 0x68, 0x4d, 0x69, 0x6e, 0x4d, 0x61, 0x78, 0x56, 0x61, 0x72,
    0x73, 0x2f, 0x52, 0x65, 0x61, 0x64, 0x56, 0x61, 0x72, 0x69, 0x61, 0x62, 0x6c,
    0x65, 0x4f, 0x70, 0x3b, 0x73, 0x65, 0x71, 0x75, 0x65, 0x6e, 0x74, 0x69, 0x61,
    0x6c, 0x2f, 0x71, 0x75, 0x61, 0x6e, 0x74, 0x69, 0x7a, 0x65, 0x5f, 0x6c, 0x61,
    0x79, 0x65, 0x72, 0x2f, 0x41, 0x6c, 0x6c, 0x56, 0x61, 0x6c, 0x75, 0x65, 0x73,
    0x51, 0x75, 0x61, 0x6e, 0x74, 0x69, 0x7a, 0x65, 0x2f, 0x46, 0x61, 0x6b, 0x65,
    0x51, 0x75, 0x61, 0x6e, 0x74, 0x57, 0x69, 0x74, 0x68, 0x4d, 0x69, 0x6e, 0x4d,
    0x61, 0x78, 0x56, 0x61, 0x72, 0x73, 0x2f, 0x52, 0x65, 0x61, 0x64, 0x56, 0x61,
    0x72, 0x69, 0x61, 0x62, 0x6c, 0x65, 0x4f, 0x70, 0x5f, 0x31, 0x00, 0x02, 0x00,
    0x00, 0x00, 0x01, 0x00, 0x00, 0x00, 0x08, 0x00, 0x00, 0x00, 0x12, 0xff, 0xff,
    0xff, 0x14, 0x00, 0x00, 0x00, 0x34, 0x00, 0x00, 0x00, 0x04, 0x00, 0x00, 0x00,
    0x00, 0x00, 0x00, 0x02, 0x5c, 0x00, 0x00, 0x00, 0x04, 0xff, 0xff, 0xff, 0x08,
    0x00, 0x00, 0x00, 0x14, 0x00, 0x00, 0x00, 0x01, 0x00, 0x00, 0x00, 0x00, 0x00,
    0x00, 0x00, 0x00, 0x00, 0x00, 0x00, 0x00, 0x00, 0x00, 0x00, 0x01, 0x00, 0x00,
    0x00, 0x35, 0x65, 0x98, 0x3a, 0x2d, 0x00, 0x00, 0x00, 0x73, 0x65, 0x71, 0x75,
    0x65, 0x6e, 0x74, 0x69, 0x61, 0x6c, 0x2f, 0x71, 0x75, 0x61, 0x6e, 0x74, 0x5f,
    0x64, 0x65, 0x6e, 0x73, 0x65, 0x2f, 0x42, 0x69, 0x61, 0x73, 0x41, 0x64, 0x64,
    0x2f, 0x52, 0x65, 0x61, 0x64, 0x56, 0x61, 0x72, 0x69, 0x61, 0x62, 0x6c, 0x65,
    0x4f, 0x70, 0x00, 0x00, 0x00, 0x01, 0x00, 0x00, 0x00, 0x80, 0x00, 0x00, 0x00,
    0x8a, 0xff, 0xff, 0xff, 0x14, 0x00, 0x00, 0x00, 0x30, 0x00, 0x00, 0x00, 0x03,
    0x00, 0x00, 0x00, 0x00, 0x00, 0x00, 0x02, 0x58, 0x00, 0x00, 0x00, 0x7c, 0xff,
    0xff, 0xff, 0x08, 0x00, 0x00, 0x00, 0x10, 0x00, 0x00, 0x00, 0x01, 0x00, 0x00,
    0x00, 0x00, 0x00, 0x00, 0x00, 0x00, 0x00, 0x00, 0x00, 0x01, 0x00, 0x00, 0x00,
    0x8b, 0x40, 0xb7, 0x3a, 0x2f, 0x00, 0x00, 0x00, 0x73, 0x65, 0x71, 0x75, 0x65,
    0x6e, 0x74, 0x69, 0x61, 0x6c, 0x2f, 0x71, 0x75, 0x61, 0x6e, 0x74, 0x5f, 0x64,
    0x65, 0x6e, 0x73, 0x65, 0x5f, 0x32, 0x2f, 0x42, 0x69, 0x61, 0x73, 0x41, 0x64,
    0x64, 0x2f, 0x52, 0x65, 0x61, 0x64, 0x56, 0x61, 0x72, 0x69, 0x61, 0x62, 0x6c,
    0x65, 0x4f, 0x70, 0x00, 0x01, 0x00, 0x00, 0x00, 0x08, 0x00, 0x00, 0x00, 0x00,
    0x00, 0x0e, 0x00, 0x18, 0x00, 0x14, 0x00, 0x13, 0x00, 0x0c, 0x00, 0x08, 0x00,
    0x04, 0x00, 0x0e, 0x00, 0x00, 0x00, 0x20, 0x00, 0x00, 0x00, 0x3c, 0x00, 0x00,
    0x00, 0x02, 0x00, 0x00, 0x00, 0x00, 0x00, 0x00, 0x02, 0x64, 0x00, 0x00, 0x00,
    0x0c, 0x00, 0x0c, 0x00, 0x00, 0x00, 0x00, 0x00, 0x08, 0x00, 0x04, 0x00, 0x0c,
    0x00, 0x00, 0x00, 0x08, 0x00, 0x00, 0x00, 0x10, 0x00, 0x00, 0x00, 0x01, 0x00,
    0x00, 0x00, 0x00, 0x00, 0x00, 0x00, 0x00, 0x00, 0x00, 0x00, 0x01, 0x00, 0x00,
    0x00, 0x31, 0xff, 0xc1, 0x3a, 0x2f, 0x00, 0x00, 0x00, 0x73, 0x65, 0x71, 0x75,
    0x65, 0x6e, 0x74, 0x69, 0x61, 0x6c, 0x2f, 0x71, 0x75, 0x61, 0x6e, 0x74, 0x5f,
    0x64, 0x65, 0x6e, 0x73, 0x65, 0x5f, 0x31, 0x2f, 0x42, 0x69, 0x61, 0x73, 0x41,
    0x64, 0x64, 0x2f, 0x52, 0x65, 0x61, 0x64, 0x56, 0x61, 0x72, 0x69, 0x61, 0x62,
    0x6c, 0x65, 0x4f, 0x70, 0x00, 0x01, 0x00, 0x00, 0x00, 0x40, 0x00, 0x00, 0x00,
    0x14, 0x00, 0x18, 0x00, 0x14, 0x00, 0x00, 0x00, 0x10, 0x00, 0x0c, 0x00, 0x08,
    0x00, 0x00, 0x00, 0x00, 0x00, 0x04, 0x00, 0x14, 0x00, 0x00, 0x00, 0x14, 0x00,
    0x00, 0x00, 0x20, 0x00, 0x00, 0x00, 0x20, 0x00, 0x00, 0x00, 0x01, 0x00, 0x00,
    0x00, 0x38, 0x00, 0x00, 0x00, 0x02, 0x00, 0x00, 0x00, 0xff, 0xff, 0xff, 0xff,
    0x08, 0x00, 0x00, 0x00, 0x04, 0x00, 0x04, 0x00, 0x04, 0x00, 0x00, 0x00, 0x19,
    0x00, 0x00, 0x00, 0x73, 0x65, 0x72, 0x76, 0x69, 0x6e, 0x67, 0x5f, 0x64, 0x65,
    0x66, 0x61, 0x75, 0x6c, 0x74, 0x5f, 0x69, 0x6e, 0x70, 0x75, 0x74, 0x5f, 0x31,
    0x3a, 0x30, 0x00, 0x00, 0x00, 0x02, 0x00, 0x00, 0x00, 0x01, 0x00, 0x00, 0x00,
    0x08, 0x00, 0x00, 0x00, 0x04, 0x00, 0x00, 0x00, 0x58, 0x00, 0x00, 0x00, 0x38,
    0x00, 0x00, 0x00, 0x18, 0x00, 0x00, 0x00, 0x04, 0x00, 0x00, 0x00, 0xe0, 0xff,
    0xff, 0xff, 0x06, 0x00, 0x00, 0x00, 0x02, 0x00, 0x00, 0x00, 0x00, 0x00, 0x00,
    0x06, 0xf0, 0xff, 0xff, 0xff, 0x19, 0x00, 0x00, 0x00, 0x02, 0x00, 0x00, 0x00,
    0x00, 0x00, 0x00, 0x19, 0x0c, 0x00, 0x10, 0x00, 0x0f, 0x00, 0x00, 0x00, 0x08,
    0x00, 0x04, 0x00, 0x0c, 0x00, 0x00, 0x00, 0x09, 0x00, 0x00, 0x00, 0x04, 0x00,
    0x00, 0x00, 0x00, 0x00, 0x00, 0x09, 0x0c, 0x00, 0x0c, 0x00, 0x0b, 0x00, 0x00,
    0x00, 0x00, 0x00, 0x04, 0x00, 0x0c, 0x00, 0x00, 0x00, 0x72, 0x00, 0x00, 0x00,
    0x00, 0x00, 0x00, 0x72,
};
const int FFNN_model_len = 13784;
